#include "magic_wand_model_data.h"

// We need to keep the data array aligned on some architectures.
#ifdef __has_attribute
#define HAVE_ATTRIBUTE(x) __has_attribute(x)
#else
#define HAVE_ATTRIBUTE(x) 0
#endif
#if HAVE_ATTRIBUTE(aligned) || (defined(__GNUC__) && !defined(__clang__))
#define DATA_ALIGN_ATTRIBUTE __attribute__((aligned(4)))
#else
#define DATA_ALIGN_ATTRIBUTE
#endif

const unsigned char g_magic_wand_model_data[] DATA_ALIGN_ATTRIBUTE = {
   0x1c, 0x00, 0x00, 0x00, 0x54, 0x46, 0x4c, 0x33, 0x14, 0x00, 0x20, 0x00,
  0x04, 0x00, 0x08, 0x00, 0x0c, 0x00, 0x10, 0x00, 0x14, 0x00, 0x00, 0x00,
  0x18, 0x00, 0x1c, 0x00, 0x14, 0x00, 0x00, 0x00, 0x03, 0x00, 0x00, 0x00,
  0x18, 0x00, 0x00, 0x00, 0x2c, 0x00, 0x00, 0x00, 0xd8, 0x00, 0x00, 0x00,
  0x2c, 0x00, 0x00, 0x00, 0x80, 0x00, 0x00, 0x00, 0x78, 0x00, 0x00, 0x00,
  0x05, 0x00, 0x00, 0x00, 0x28, 0x07, 0x00, 0x00, 0x44, 0x06, 0x00, 0x00,
  0xbc, 0x03, 0x00, 0x00, 0xf8, 0x02, 0x00, 0x00, 0xac, 0x01, 0x00, 0x00,
  0x01, 0x00, 0x00, 0x00, 0xd0, 0x00, 0x00, 0x00, 0x14, 0x00, 0x00, 0x00,
  0x98, 0x32, 0x00, 0x00, 0x94, 0x32, 0x00, 0x00, 0x8c, 0x31, 0x00, 0x00,
  0xd8, 0x30, 0x00, 0x00, 0x30, 0x30, 0x00, 0x00, 0xbc, 0x2f, 0x00, 0x00,
  0x50, 0x2f, 0x00, 0x00, 0x00, 0x13, 0x00, 0x00, 0xec, 0x11, 0x00, 0x00,
  0x10, 0x10, 0x00, 0x00, 0xb4, 0x07, 0x00, 0x00, 0x6c, 0x32, 0x00, 0x00,
  0x68, 0x32, 0x00, 0x00, 0x64, 0x32, 0x00, 0x00, 0x60, 0x32, 0x00, 0x00,
  0x5c, 0x32, 0x00, 0x00, 0x58, 0x32, 0x00, 0x00, 0x54, 0x32, 0x00, 0x00,
  0x50, 0x32, 0x00, 0x00, 0x3c, 0x00, 0x00, 0x00, 0x00, 0x00, 0x00, 0x00,
  0x01, 0x00, 0x00, 0x00, 0x0c, 0x00, 0x00, 0x00, 0x08, 0x00, 0x0c, 0x00,
  0x04, 0x00, 0x08, 0x00, 0x08, 0x00, 0x00, 0x00, 0x08, 0x00, 0x00, 0x00,
  0x13, 0x00, 0x00, 0x00, 0x13, 0x00, 0x00, 0x00, 0x6d, 0x69, 0x6e, 0x5f,
  0x72, 0x75, 0x6e, 0x74, 0x69, 0x6d, 0x65, 0x5f, 0x76, 0x65, 0x72, 0x73,
  0x69, 0x6f, 0x6e, 0x00, 0xfa, 0xce, 0xff, 0xff, 0x04, 0x00, 0x00, 0x00,
  0x10, 0x00, 0x00, 0x00, 0x31, 0x2e, 0x35, 0x2e, 0x30, 0x00, 0x00, 0x00,
  0x00, 0x00, 0x00, 0x00, 0x00, 0x00, 0x00, 0x00, 0x0f, 0x00, 0x00, 0x00,
  0x4d, 0x4c, 0x49, 0x52, 0x20, 0x43, 0x6f, 0x6e, 0x76, 0x65, 0x72, 0x74,
  0x65, 0x64, 0x2e, 0x00, 0x00, 0x00, 0x0e, 0x00, 0x18, 0x00, 0x04, 0x00,
  0x08, 0x00, 0x0c, 0x00, 0x10, 0x00, 0x14, 0x00, 0x0e, 0x00, 0x00, 0x00,
  0x14, 0x00, 0x00, 0x00, 0x5c, 0x00, 0x00, 0x00, 0x60, 0x00, 0x00, 0x00,
  0x64, 0x00, 0x00, 0x00, 0x84, 0x00, 0x00, 0x00, 0x12, 0x00, 0x00, 0x00,
  0x58, 0x31, 0x00, 0x00, 0xe8, 0x30, 0x00, 0x00, 0x44, 0x30, 0x00, 0x00,
  0x9c, 0x2f, 0x00, 0x00, 0xf4, 0x2e, 0x00, 0x00, 0x94, 0x2e, 0x00, 0x00,
  0x2c, 0x2e, 0x00, 0x00, 0xd8, 0x11, 0x00, 0x00, 0xbc, 0x10, 0x00, 0x00,
  0xe0, 0x0e, 0x00, 0x00, 0x0c, 0x06, 0x00, 0x00, 0x28, 0x05, 0x00, 0x00,
  0xe8, 0x03, 0x00, 0x00, 0x3c, 0x03, 0x00, 0x00, 0x98, 0x02, 0x00, 0x00,
  0xd4, 0x01, 0x00, 0x00, 0x10, 0x01, 0x00, 0x00, 0x84, 0x00, 0x00, 0x00,
  0x01, 0x00, 0x00, 0x00, 0x00, 0x00, 0x00, 0x00, 0x01, 0x00, 0x00, 0x00,
  0x11, 0x00, 0x00, 0x00, 0x08, 0x00, 0x00, 0x00, 0x74, 0x05, 0x00, 0x00,
  0x94, 0x04, 0x00, 0x00, 0x78, 0x03, 0x00, 0x00, 0xbc, 0x02, 0x00, 0x00,
  0x30, 0x02, 0x00, 0x00, 0x50, 0x01, 0x00, 0x00, 0xa8, 0x00, 0x00, 0x00,
  0x10, 0x00, 0x00, 0x00, 0x04, 0x00, 0x00, 0x00, 0x6d, 0x61, 0x69, 0x6e,
  0x00, 0x00, 0x00, 0x00, 0x7a, 0xff, 0xff, 0xff, 0x00, 0x00, 0x00, 0x09,
  0x04, 0x00, 0x00, 0x00, 0x1c, 0x00, 0x00, 0x00, 0x10, 0x00, 0x00, 0x00,
  0x04, 0x00, 0x00, 0x00, 0xf6, 0xcf, 0xff, 0xff, 0x00, 0x00, 0x80, 0x3f,
  0x01, 0x00, 0x00, 0x00, 0x11, 0x00, 0x00, 0x00, 0x01, 0x00, 0x00, 0x00,
  0x10, 0x00, 0x00, 0x00, 0xa0, 0xfa, 0xff, 0xff, 0x19, 0x00, 0x00, 0x00,
  0x00, 0x00, 0x00, 0x19, 0x01, 0x00, 0x00, 0x00, 0x84, 0xcf, 0xff, 0xff,
  0x14, 0x00, 0x00, 0x00, 0x12, 0x00, 0x00, 0x00, 0x18, 0x00, 0x00, 0x00,
  0x30, 0x00, 0x00, 0x00, 0x20, 0x00, 0x00, 0x00, 0x02, 0x00, 0x00, 0x00,
  0x01, 0x00, 0x00, 0x00, 0x03, 0x00, 0x00, 0x00, 0x08, 0x00, 0x00, 0x00,
  0x49, 0x64, 0x65, 0x6e, 0x74, 0x69, 0x74, 0x79, 0x00, 0x00, 0x00, 0x00,
  0x02, 0x00, 0x00, 0x00, 0xff, 0xff, 0xff, 0xff, 0x03, 0x00, 0x00, 0x00,
  0x68, 0xd0, 0xff, 0xff, 0x00, 0x00, 0x0e, 0x00, 0x18, 0x00, 0x08, 0x00,
  0x0c, 0x00, 0x10, 0x00, 0x07, 0x00, 0x14, 0x00, 0x0e, 0x00, 0x00, 0x00,
  0x00, 0x00, 0x00, 0x08, 0x03, 0x00, 0x00, 0x00, 0x18, 0x00, 0x00, 0x00,
  0x0c, 0x00, 0x00, 0x00, 0x04, 0x00, 0x00, 0x00, 0x84, 0xcf, 0xff, 0xff,
  0x01, 0x00, 0x00, 0x00, 0x10, 0x00, 0x00, 0x00, 0x03, 0x00, 0x00, 0x00,
  0x0f, 0x00, 0x00, 0x00, 0x07, 0x00, 0x00, 0x00, 0x04, 0x00, 0x00, 0x00,
  0x0c, 0xd0, 0xff, 0xff, 0x14, 0x00, 0x00, 0x00, 0x11, 0x00, 0x00, 0x00,
  0x18, 0x00, 0x00, 0x00, 0x5c, 0x00, 0x00, 0x00, 0x4c, 0x00, 0x00, 0x00,
  0x02, 0x00, 0x00, 0x00, 0x01, 0x00, 0x00, 0x00, 0x03, 0x00, 0x00, 0x00,
  0x34, 0x00, 0x00, 0x00, 0x73, 0x65, 0x71, 0x75, 0x65, 0x6e, 0x74, 0x69,
  0x61, 0x6c, 0x2f, 0x64, 0x65, 0x6e, 0x73, 0x65, 0x5f, 0x31, 0x2f, 0x4d,
  0x61, 0x74, 0x4d, 0x75, 0x6c, 0x3b, 0x73, 0x65, 0x71, 0x75, 0x65, 0x6e,
  0x74, 0x69, 0x61, 0x6c, 0x2f, 0x64, 0x65, 0x6e, 0x73, 0x65, 0x5f, 0x31,
  0x2f, 0x42, 0x69, 0x61, 0x73, 0x41, 0x64, 0x64, 0x00, 0x00, 0x00, 0x00,
  0x02, 0x00, 0x00, 0x00, 0xff, 0xff, 0xff, 0xff, 0x03, 0x00, 0x00, 0x00,
  0x0c, 0xd0, 0xff, 0xff, 0xda, 0xfc, 0xff, 0xff, 0x00, 0x00, 0x00, 0x08,
  0x03, 0x00, 0x00, 0x00, 0x24, 0x00, 0x00, 0x00, 0x18, 0x00, 0x00, 0x00,
  0x0c, 0x00, 0x00, 0x00, 0x00, 0x00, 0x06, 0x00, 0x08, 0x00, 0x07, 0x00,
  0x06, 0x00, 0x00, 0x00, 0x00, 0x00, 0x00, 0x01, 0x01, 0x00, 0x00, 0x00,
  0x0f, 0x00, 0x00, 0x00, 0x03, 0x00, 0x00, 0x00, 0x0e, 0x00, 0x00, 0x00,
  0x06, 0x00, 0x00, 0x00, 0x03, 0x00, 0x00, 0x00, 0xe8, 0xfb, 0xff, 0xff,
  0x09, 0x00, 0x00, 0x00, 0x00, 0x00, 0x00, 0x09, 0x01, 0x00, 0x00, 0x00,
  0xcc, 0xd0, 0xff, 0xff, 0x14, 0x00, 0x00, 0x00, 0x10, 0x00, 0x00, 0x00,
  0x18, 0x00, 0x00, 0x00, 0x6c, 0x00, 0x00, 0x00, 0x5c, 0x00, 0x00, 0x00,
  0x02, 0x00, 0x00, 0x00, 0x01, 0x00, 0x00, 0x00, 0x10, 0x00, 0x00, 0x00,
  0x46, 0x00, 0x00, 0x00, 0x73, 0x65, 0x71, 0x75, 0x65, 0x6e, 0x74, 0x69,
  0x61, 0x6c, 0x2f, 0x64, 0x65, 0x6e, 0x73, 0x65, 0x2f, 0x4d, 0x61, 0x74,
  0x4d, 0x75, 0x6c, 0x3b, 0x73, 0x65, 0x71, 0x75, 0x65, 0x6e, 0x74, 0x69,
  0x61, 0x6c, 0x2f, 0x64, 0x65, 0x6e, 0x73, 0x65, 0x2f, 0x52, 0x65, 0x6c,
  0x75, 0x3b, 0x73, 0x65, 0x71, 0x75, 0x65, 0x6e, 0x74, 0x69, 0x61, 0x6c,
  0x2f, 0x64, 0x65, 0x6e, 0x73, 0x65, 0x2f, 0x42, 0x69, 0x61, 0x73, 0x41,
  0x64, 0x64, 0x00, 0x00, 0x02, 0x00, 0x00, 0x00, 0xff, 0xff, 0xff, 0xff,
  0x10, 0x00, 0x00, 0x00, 0xec, 0xd1, 0xff, 0xff, 0x00, 0x00, 0x0a, 0x00,
  0x10, 0x00, 0x04, 0x00, 0x08, 0x00, 0x0c, 0x00, 0x0a, 0x00, 0x00, 0x00,
  0x02, 0x00, 0x00, 0x00, 0x10, 0x00, 0x00, 0x00, 0x04, 0x00, 0x00, 0x00,
  0x01, 0x00, 0x00, 0x00, 0x0e, 0x00, 0x00, 0x00, 0x02, 0x00, 0x00, 0x00,
  0x0d, 0x00, 0x00, 0x00, 0x05, 0x00, 0x00, 0x00, 0xa8, 0xfc, 0xff, 0xff,
  0x16, 0x00, 0x00, 0x00, 0x00, 0x00, 0x00, 0x16, 0x01, 0x00, 0x00, 0x00,
  0x8c, 0xd1, 0xff, 0xff, 0x14, 0x00, 0x00, 0x00, 0x0f, 0x00, 0x00, 0x00,
  0x18, 0x00, 0x00, 0x00, 0x40, 0x00, 0x00, 0x00, 0x30, 0x00, 0x00, 0x00,
  0x02, 0x00, 0x00, 0x00, 0x01, 0x00, 0x00, 0x00, 0x70, 0x00, 0x00, 0x00,
  0x1a, 0x00, 0x00, 0x00, 0x73, 0x65, 0x71, 0x75, 0x65, 0x6e, 0x74, 0x69,
  0x61, 0x6c, 0x2f, 0x66, 0x6c, 0x61, 0x74, 0x74, 0x65, 0x6e, 0x2f, 0x52,
  0x65, 0x73, 0x68, 0x61, 0x70, 0x65, 0x00, 0x00, 0x02, 0x00, 0x00, 0x00,
  0xff, 0xff, 0xff, 0xff, 0x70, 0x00, 0x00, 0x00, 0x70, 0xd1, 0xff, 0xff,
  0x3e, 0xfe, 0xff, 0xff, 0x00, 0x00, 0x00, 0x05, 0x01, 0x00, 0x00, 0x00,
  0x38, 0x00, 0x00, 0x00, 0x2c, 0x00, 0x00, 0x00, 0x14, 0x00, 0x00, 0x00,
  0x00, 0x00, 0x0e, 0x00, 0x14, 0x00, 0x00, 0x00, 0x10, 0x00, 0x0c, 0x00,
  0x08, 0x00, 0x04, 0x00, 0x0e, 0x00, 0x00, 0x00, 0x03, 0x00, 0x00, 0x00,
  0x01, 0x00, 0x00, 0x00, 0x03, 0x00, 0x00, 0x00, 0x01, 0x00, 0x00, 0x00,
  0x01, 0x00, 0x00, 0x00, 0x0d, 0x00, 0x00, 0x00, 0x01, 0x00, 0x00, 0x00,
  0x0c, 0x00, 0x00, 0x00, 0x2c, 0xd2, 0xff, 0xff, 0x14, 0x00, 0x00, 0x00,
  0x0e, 0x00, 0x00, 0x00, 0x20, 0x00, 0x00, 0x00, 0x58, 0x00, 0x00, 0x00,
  0x40, 0x00, 0x00, 0x00, 0x04, 0x00, 0x00, 0x00, 0x01, 0x00, 0x00, 0x00,
  0x07, 0x00, 0x00, 0x00, 0x01, 0x00, 0x00, 0x00, 0x10, 0x00, 0x00, 0x00,
  0x22, 0x00, 0x00, 0x00, 0x73, 0x65, 0x71, 0x75, 0x65, 0x6e, 0x74, 0x69,
  0x61, 0x6c, 0x2f, 0x6d, 0x61, 0x78, 0x5f, 0x70, 0x6f, 0x6f, 0x6c, 0x69,
  0x6e, 0x67, 0x32, 0x64, 0x5f, 0x31, 0x2f, 0x4d, 0x61, 0x78, 0x50, 0x6f,
  0x6f, 0x6c, 0x00, 0x00, 0x04, 0x00, 0x00, 0x00, 0xff, 0xff, 0xff, 0xff,
  0x07, 0x00, 0x00, 0x00, 0x01, 0x00, 0x00, 0x00, 0x10, 0x00, 0x00, 0x00,
  0x28, 0xd2, 0xff, 0xff, 0x1a, 0xfe, 0xff, 0xff, 0x00, 0x00, 0x00, 0x01,
  0x24, 0x00, 0x00, 0x00, 0x18, 0x00, 0x00, 0x00, 0x04, 0x00, 0x00, 0x00,
  0x0c, 0xfe, 0xff, 0xff, 0x01, 0x00, 0x00, 0x00, 0x01, 0x00, 0x00, 0x00,
  0x00, 0x00, 0x00, 0x01, 0x01, 0x00, 0x00, 0x00, 0x0c, 0x00, 0x00, 0x00,
  0x03, 0x00, 0x00, 0x00, 0x0b, 0x00, 0x00, 0x00, 0x09, 0x00, 0x00, 0x00,
  0x02, 0x00, 0x00, 0x00, 0xd4, 0xd2, 0xff, 0xff, 0x14, 0x00, 0x00, 0x00,
  0x0d, 0x00, 0x00, 0x00, 0x20, 0x00, 0x00, 0x00, 0xb8, 0x00, 0x00, 0x00,
  0xa0, 0x00, 0x00, 0x00, 0x04, 0x00, 0x00, 0x00, 0x01, 0x00, 0x00, 0x00,
  0x15, 0x00, 0x00, 0x00, 0x01, 0x00, 0x00, 0x00, 0x10, 0x00, 0x00, 0x00,
  0x83, 0x00, 0x00, 0x00, 0x73, 0x65, 0x71, 0x75, 0x65, 0x6e, 0x74, 0x69,
  0x61, 0x6c, 0x2f, 0x63, 0x6f, 0x6e, 0x76, 0x32, 0x64, 0x5f, 0x31, 0x2f,
  0x52, 0x65, 0x6c, 0x75, 0x3b, 0x73, 0x65, 0x71, 0x75, 0x65, 0x6e, 0x74,
  0x69, 0x61, 0x6c, 0x2f, 0x63, 0x6f, 0x6e, 0x76, 0x32, 0x64, 0x5f, 0x31,
  0x2f, 0x42, 0x69, 0x61, 0x73, 0x41, 0x64, 0x64, 0x3b, 0x73, 0x65, 0x71,
  0x75, 0x65, 0x6e, 0x74, 0x69, 0x61, 0x6c, 0x2f, 0x63, 0x6f, 0x6e, 0x76,
  0x32, 0x64, 0x5f, 0x31, 0x2f, 0x43, 0x6f, 0x6e, 0x76, 0x32, 0x44, 0x3b,
  0x73, 0x65, 0x71, 0x75, 0x65, 0x6e, 0x74, 0x69, 0x61, 0x6c, 0x2f, 0x63,
  0x6f, 0x6e, 0x76, 0x32, 0x64, 0x5f, 0x31, 0x2f, 0x42, 0x69, 0x61, 0x73,
  0x41, 0x64, 0x64, 0x2f, 0x52, 0x65, 0x61, 0x64, 0x56, 0x61, 0x72, 0x69,
  0x61, 0x62, 0x6c, 0x65, 0x4f, 0x70, 0x2f, 0x72, 0x65, 0x73, 0x6f, 0x75,
  0x72, 0x63, 0x65, 0x00, 0x04, 0x00, 0x00, 0x00, 0xff, 0xff, 0xff, 0xff,
  0x15, 0x00, 0x00, 0x00, 0x01, 0x00, 0x00, 0x00, 0x10, 0x00, 0x00, 0x00,
  0x40, 0xd4, 0xff, 0xff, 0x00, 0x00, 0x0e, 0x00, 0x1a, 0x00, 0x08, 0x00,
  0x0c, 0x00, 0x10, 0x00, 0x07, 0x00, 0x14, 0x00, 0x0e, 0x00, 0x00, 0x00,
  0x00, 0x00, 0x00, 0x05, 0x01, 0x00, 0x00, 0x00, 0x3c, 0x00, 0x00, 0x00,
  0x30, 0x00, 0x00, 0x00, 0x14, 0x00, 0x00, 0x00, 0x00, 0x00, 0x0e, 0x00,
  0x18, 0x00, 0x17, 0x00, 0x10, 0x00, 0x0c, 0x00, 0x08, 0x00, 0x04, 0x00,
  0x0e, 0x00, 0x00, 0x00, 0x03, 0x00, 0x00, 0x00, 0x03, 0x00, 0x00, 0x00,
  0x03, 0x00, 0x00, 0x00, 0x03, 0x00, 0x00, 0x00, 0x00, 0x00, 0x00, 0x01,
  0x01, 0x00, 0x00, 0x00, 0x0b, 0x00, 0x00, 0x00, 0x01, 0x00, 0x00, 0x00,
  0x0a, 0x00, 0x00, 0x00, 0x2c, 0xff, 0xff, 0xff, 0x11, 0x00, 0x00, 0x00,
  0x00, 0x00, 0x00, 0x11, 0x01, 0x00, 0x00, 0x00, 0x10, 0xd4, 0xff, 0xff,
  0x14, 0x00, 0x00, 0x00, 0x0c, 0x00, 0x00, 0x00, 0x20, 0x00, 0x00, 0x00,
  0x58, 0x00, 0x00, 0x00, 0x40, 0x00, 0x00, 0x00, 0x04, 0x00, 0x00, 0x00,
  0x01, 0x00, 0x00, 0x00, 0x15, 0x00, 0x00, 0x00, 0x01, 0x00, 0x00, 0x00,
  0x08, 0x00, 0x00, 0x00, 0x20, 0x00, 0x00, 0x00, 0x73, 0x65, 0x71, 0x75,
  0x65, 0x6e, 0x74, 0x69, 0x61, 0x6c, 0x2f, 0x6d, 0x61, 0x78, 0x5f, 0x70,
  0x6f, 0x6f, 0x6c, 0x69, 0x6e, 0x67, 0x32, 0x64, 0x2f, 0x4d, 0x61, 0x78,
  0x50, 0x6f, 0x6f, 0x6c, 0x00, 0x00, 0x00, 0x00, 0x04, 0x00, 0x00, 0x00,
  0xff, 0xff, 0xff, 0xff, 0x15, 0x00, 0x00, 0x00, 0x01, 0x00, 0x00, 0x00,
  0x08, 0x00, 0x00, 0x00, 0x1c, 0xd5, 0xff, 0xff, 0x00, 0x00, 0x0e, 0x00,
  0x14, 0x00, 0x00, 0x00, 0x08, 0x00, 0x0c, 0x00, 0x07, 0x00, 0x10, 0x00,
  0x0e, 0x00, 0x00, 0x00, 0x00, 0x00, 0x00, 0x01, 0x30, 0x00, 0x00, 0x00,
  0x24, 0x00, 0x00, 0x00, 0x10, 0x00, 0x00, 0x00, 0x0c, 0x00, 0x10, 0x00,
  0x00, 0x00, 0x04, 0x00, 0x08, 0x00, 0x0f, 0x00, 0x0c, 0x00, 0x00, 0x00,
  0x01, 0x00, 0x00, 0x00, 0x01, 0x00, 0x00, 0x00, 0x00, 0x00, 0x00, 0x01,
  0x01, 0x00, 0x00, 0x00, 0x0a, 0x00, 0x00, 0x00, 0x03, 0x00, 0x00, 0x00,
  0x00, 0x00, 0x00, 0x00, 0x08, 0x00, 0x00, 0x00, 0x01, 0x00, 0x00, 0x00,
  0x0c, 0x00, 0x10, 0x00, 0x0b, 0x00, 0x00, 0x00, 0x0c, 0x00, 0x04, 0x00,
  0x0c, 0x00, 0x00, 0x00, 0x03, 0x00, 0x00, 0x00, 0x00, 0x00, 0x00, 0x03,
  0x01, 0x00, 0x00, 0x00, 0xf0, 0xd4, 0xff, 0xff, 0x14, 0x00, 0x00, 0x00,
  0x0b, 0x00, 0x00, 0x00, 0x20, 0x00, 0x00, 0x00, 0xb0, 0x00, 0x00, 0x00,
  0x98, 0x00, 0x00, 0x00, 0x04, 0x00, 0x00, 0x00, 0x01, 0x00, 0x00, 0x00,
  0x40, 0x00, 0x00, 0x00, 0x03, 0x00, 0x00, 0x00, 0x08, 0x00, 0x00, 0x00,
  0x7b, 0x00, 0x00, 0x00, 0x73, 0x65, 0x71, 0x75, 0x65, 0x6e, 0x74, 0x69,
  0x61, 0x6c, 0x2f, 0x63, 0x6f, 0x6e, 0x76, 0x32, 0x64, 0x2f, 0x52, 0x65,
  0x6c, 0x75, 0x3b, 0x73, 0x65, 0x71, 0x75, 0x65, 0x6e, 0x74, 0x69, 0x61,
  0x6c, 0x2f, 0x63, 0x6f, 0x6e, 0x76, 0x32, 0x64, 0x2f, 0x42, 0x69, 0x61,
  0x73, 0x41, 0x64, 0x64, 0x3b, 0x73, 0x65, 0x71, 0x75, 0x65, 0x6e, 0x74,
  0x69, 0x61, 0x6c, 0x2f, 0x63, 0x6f, 0x6e, 0x76, 0x32, 0x64, 0x2f, 0x43,
  0x6f, 0x6e, 0x76, 0x32, 0x44, 0x3b, 0x73, 0x65, 0x71, 0x75, 0x65, 0x6e,
  0x74, 0x69, 0x61, 0x6c, 0x2f, 0x63, 0x6f, 0x6e, 0x76, 0x32, 0x64, 0x2f,
  0x42, 0x69, 0x61, 0x73, 0x41, 0x64, 0x64, 0x2f, 0x52, 0x65, 0x61, 0x64,
  0x56, 0x61, 0x72, 0x69, 0x61, 0x62, 0x6c, 0x65, 0x4f, 0x70, 0x2f, 0x72,
  0x65, 0x73, 0x6f, 0x75, 0x72, 0x63, 0x65, 0x00, 0x04, 0x00, 0x00, 0x00,
  0xff, 0xff, 0xff, 0xff, 0x40, 0x00, 0x00, 0x00, 0x03, 0x00, 0x00, 0x00,
  0x08, 0x00, 0x00, 0x00, 0x44, 0xd5, 0xff, 0xff, 0x4e, 0xd6, 0xff, 0xff,
  0x04, 0x00, 0x00, 0x00, 0x00, 0x08, 0x00, 0x00, 0x64, 0x77, 0x49, 0x3d,
  0x6b, 0x95, 0x80, 0xbd, 0x47, 0x89, 0x8f, 0xbd, 0x84, 0x74, 0x29, 0x3d,
  0x6a, 0xb7, 0x30, 0x3d, 0x02, 0xc1, 0x09, 0x3e, 0xae, 0xee, 0xef, 0xbd,
  0x2d, 0x70, 0x93, 0xbe, 0x0b, 0x51, 0x2c, 0x3e, 0x26, 0x2e, 0xcd, 0xbd,
  0xe0, 0x55, 0xc1, 0xbd, 0x31, 0x7c, 0x52, 0x3d, 0x18, 0xf1, 0xac, 0x3e,
  0x75, 0x43, 0x7a, 0x3e, 0xc4, 0xb0, 0xc1, 0x3e, 0xd0, 0x4c, 0x16, 0xbe,
  0x26, 0x2f, 0x58, 0xbe, 0xdd, 0x69, 0x4e, 0xbe, 0xdd, 0x5f, 0x11, 0xbe,
  0x88, 0xbb, 0xc6, 0x3c, 0x16, 0xfe, 0x52, 0x3a, 0x9f, 0x1e, 0xbc, 0xbe,
  0x53, 0x50, 0x02, 0xbf, 0x70, 0xc5, 0xb2, 0xbe, 0x7a, 0xb4, 0xe8, 0xbc,
  0x9f, 0xcf, 0x7e, 0xbe, 0x6c, 0x90, 0x38, 0xbe, 0xd2, 0x29, 0xa8, 0x3c,
  0x38, 0x7f, 0xa9, 0xbe, 0x95, 0x5c, 0xc6, 0x3d, 0x38, 0x00, 0x3e, 0xbe,
  0x72, 0xf5, 0x61, 0xbe, 0x39, 0x9c, 0x73, 0xbe, 0xb6, 0xe4, 0xc5, 0xbc,
  0x21, 0x34, 0x34, 0xbe, 0xf6, 0x90, 0x3c, 0x3d, 0xcd, 0x31, 0x11, 0xbe,
  0x46, 0xfa, 0x1e, 0xbe, 0x68, 0x7d, 0x2c, 0x3b, 0x80, 0xa7, 0x26, 0xbe,
  0x6e, 0x75, 0x00, 0xbf, 0x25, 0xee, 0x7d, 0x3a, 0xd6, 0xac, 0x13, 0x3e,
  0x16, 0xdc, 0x93, 0x3e, 0x69, 0x2e, 0xd0, 0x3d, 0x78, 0xef, 0x9d, 0xbe,
  0x87, 0x71, 0x9e, 0x3b, 0xee, 0x42, 0x1c, 0x3e, 0x2a, 0xad, 0xe5, 0xbe,
  0x7f, 0xd3, 0x99, 0x3d, 0x0a, 0xdd, 0xa2, 0x3d, 0x9f, 0x2a, 0x9f, 0x3e,
  0xbd, 0xd1, 0xdd, 0x3d, 0xbb, 0x29, 0x2d, 0x3e, 0x72, 0x4e, 0xa2, 0x3c,
  0x5f, 0x4f, 0x9f, 0x3e, 0xdb, 0x04, 0x8c, 0xbf, 0xd6, 0xbd, 0x87, 0xbd,
  0x8c, 0x01, 0x33, 0xbd, 0x31, 0xbd, 0x97, 0xbd, 0x37, 0x58, 0x9a, 0xbe,
  0x38, 0xb2, 0x1a, 0xbf, 0xaa, 0x81, 0x1b, 0xbe, 0xe5, 0x3f, 0x0d, 0xbe,
  0xff, 0xb3, 0x91, 0x3e, 0xd7, 0xa5, 0xbf, 0xbe, 0x21, 0x55, 0x9b, 0xbe,
  0xb0, 0xe1, 0x4b, 0x3e, 0x6d, 0xda, 0xf5, 0x3d, 0xc6, 0xc2, 0x09, 0xbe,
  0x7f, 0xef, 0x86, 0xbd, 0x10, 0xbd, 0xa7, 0xbd, 0x03, 0xa2, 0x24, 0x3e,
  0x52, 0x66, 0xa4, 0xbe, 0x2f, 0x03, 0x6f, 0xbe, 0xd1, 0x35, 0x75, 0x3e,
  0x62, 0x5e, 0x8f, 0x3e, 0xe1, 0x55, 0xd7, 0x3c, 0xe0, 0x5a, 0x8d, 0x3e,
  0x13, 0x29, 0x57, 0x3e, 0x39, 0x24, 0xeb, 0x3d, 0x2b, 0xc3, 0xa3, 0xbe,
  0xdf, 0x74, 0x82, 0xbe, 0xc7, 0x07, 0x97, 0xbd, 0xca, 0xcf, 0x77, 0x3d,
  0xfd, 0x0e, 0x49, 0x3e, 0x29, 0x34, 0xbe, 0xbd, 0x64, 0x74, 0xc0, 0xbc,
  0xf2, 0x6a, 0xa5, 0xbd, 0xc2, 0x9b, 0xbf, 0xbe, 0x17, 0x69, 0xed, 0xbe,
  0x1b, 0x03, 0x53, 0x3d, 0x51, 0x5a, 0xdb, 0xba, 0x21, 0x48, 0x41, 0xbc,
  0xe1, 0x4b, 0x3f, 0x3d, 0x83, 0x49, 0x4e, 0x3e, 0x39, 0xb5, 0x1d, 0xbe,
  0x6b, 0xb3, 0x33, 0xbe, 0xe5, 0x1d, 0x83, 0xbe, 0x74, 0xf4, 0x1c, 0x3e,
  0xf0, 0x8d, 0xc2, 0x3e, 0x39, 0x14, 0x43, 0x3d, 0x87, 0x78, 0x20, 0xbe,
  0x3a, 0xf3, 0x7d, 0xbe, 0x57, 0x6e, 0x49, 0x3d, 0x33, 0x29, 0xfe, 0xbd,
  0x96, 0xd0, 0x06, 0xbe, 0xe7, 0x68, 0x35, 0x3e, 0xbe, 0x75, 0xc5, 0x3e,
  0xfb, 0x70, 0x2c, 0x3d, 0x5e, 0x26, 0x30, 0xbd, 0x39, 0x74, 0xbc, 0x3e,
  0xb9, 0x8e, 0x23, 0xbe, 0x80, 0x08, 0x22, 0xbe, 0xcd, 0x99, 0xa1, 0xbd,
  0xb2, 0x77, 0xb4, 0xbe, 0x85, 0x82, 0x9e, 0xbd, 0x4d, 0x11, 0xd2, 0xbd,
  0xbd, 0x15, 0x84, 0xbc, 0x87, 0xe0, 0x5d, 0xbe, 0x7b, 0xac, 0xe3, 0xbd,
  0xba, 0xa3, 0xb8, 0xbd, 0xa9, 0x3a, 0xfd, 0xbc, 0xfd, 0xf0, 0xba, 0xbe,
  0x06, 0xee, 0x64, 0x3e, 0xf7, 0x01, 0x54, 0x3e, 0xbf, 0x97, 0x59, 0x3e,
  0xbd, 0xcb, 0xe8, 0x3d, 0x62, 0x73, 0xbf, 0x3e, 0xb6, 0xa9, 0xd0, 0xbe,
  0xbc, 0x93, 0x00, 0xbf, 0x94, 0x49, 0xd0, 0x3b, 0xe4, 0x9e, 0x67, 0x3e,
  0xa7, 0xa5, 0x4d, 0xbd, 0x18, 0xb8, 0xcb, 0x3d, 0x5d, 0x6f, 0x85, 0x3e,
  0xaa, 0x89, 0x59, 0x3e, 0x46, 0x6a, 0xbe, 0xbe, 0xd0, 0x58, 0x05, 0xbf,
  0xc9, 0xf3, 0x05, 0xbe, 0x96, 0x71, 0x34, 0x3d, 0x67, 0x83, 0x0e, 0x3e,
  0x63, 0x3d, 0x54, 0x3c, 0xde, 0xbb, 0xb0, 0xbb, 0xc2, 0x5a, 0x99, 0xbd,
  0xaf, 0x0b, 0x85, 0xbe, 0xbf, 0x81, 0xcb, 0xbe, 0xad, 0x31, 0x55, 0xbd,
  0xda, 0x77, 0x72, 0x3d, 0x29, 0x56, 0x8b, 0x3e, 0x3b, 0xef, 0xf4, 0x3c,
  0x90, 0xba, 0xf7, 0xba, 0x76, 0xe5, 0xbc, 0x3e, 0x37, 0x43, 0x03, 0xbf,
  0xe1, 0x8b, 0x76, 0xbe, 0xf5, 0x19, 0x05, 0xbd, 0x4a, 0xda, 0xca, 0x3d,
  0x0e, 0x77, 0x24, 0xbd, 0x16, 0xfa, 0x36, 0x3e, 0x7f, 0x47, 0xe6, 0xbc,
  0x70, 0xa0, 0x75, 0x3d, 0xc6, 0xfe, 0xf8, 0xbd, 0x12, 0x11, 0x03, 0xbe,
  0x07, 0xe6, 0xdd, 0x3e, 0xf6, 0x79, 0x22, 0x3e, 0x95, 0x69, 0x49, 0x3d,
  0xc2, 0x7d, 0xd4, 0xbc, 0xdb, 0x63, 0x0f, 0xbe, 0x03, 0xf1, 0x4c, 0xbd,
  0xcf, 0xf7, 0x73, 0xbd, 0x85, 0x05, 0x1b, 0xbe, 0xa0, 0x30, 0xf9, 0xbd,
  0x39, 0x35, 0x65, 0x3d, 0xe1, 0x7a, 0x84, 0x3d, 0x52, 0xf3, 0x3f, 0x3d,
  0x8c, 0xb1, 0x9e, 0x3d, 0xa3, 0x04, 0x87, 0x3d, 0x08, 0x10, 0x41, 0xbd,
  0xc6, 0xce, 0xb0, 0xbd, 0x48, 0x9b, 0xf5, 0xbd, 0x0f, 0xd5, 0x4e, 0xbd,
  0x38, 0x4a, 0x32, 0x3b, 0xe5, 0x0d, 0xd4, 0x3d, 0x0b, 0x0e, 0x96, 0x3d,
  0x67, 0x2c, 0x19, 0xbe, 0x3f, 0xdf, 0x1e, 0x3c, 0xa2, 0x3b, 0x5b, 0x3d,
  0x24, 0x51, 0xc9, 0xbd, 0x8e, 0xec, 0x26, 0xbe, 0x25, 0xee, 0x98, 0xbe,
  0x0e, 0x46, 0x5d, 0xbd, 0x2c, 0x6a, 0x59, 0xbe, 0x80, 0x4f, 0x6d, 0xbd,
  0xe3, 0x62, 0xb3, 0x3c, 0x4f, 0x91, 0xb3, 0x3d, 0xb4, 0x06, 0x52, 0xbe,
  0x00, 0xa1, 0x08, 0xbd, 0x9c, 0x72, 0xe8, 0x3c, 0x2e, 0x79, 0x09, 0x3e,
  0x37, 0xf5, 0xe1, 0x3b, 0x5e, 0xaa, 0xab, 0xbd, 0x0c, 0xfb, 0xaa, 0xbb,
  0xe7, 0x22, 0xea, 0x3c, 0xf9, 0xde, 0xe3, 0x3e, 0x37, 0x3d, 0x30, 0xbb,
  0x29, 0xf8, 0xbc, 0x3e, 0x06, 0xc2, 0x77, 0xbe, 0xa1, 0x73, 0x44, 0x3e,
  0xec, 0x8b, 0x07, 0xbe, 0x22, 0xb7, 0x40, 0xbd, 0xd2, 0x9c, 0x5a, 0xbd,
  0xd4, 0x8f, 0x64, 0xbd, 0x9d, 0xbe, 0x29, 0xbe, 0x7b, 0xa1, 0xb9, 0xbc,
  0x07, 0x38, 0x01, 0xbd, 0x64, 0x53, 0xb6, 0x3d, 0xc7, 0xef, 0x0b, 0xbe,
  0xf9, 0xa0, 0x45, 0xbd, 0x32, 0x57, 0x19, 0xbd, 0x08, 0x29, 0x40, 0xbe,
  0x98, 0x28, 0x94, 0xbe, 0x33, 0x5e, 0x29, 0xbe, 0x99, 0x9f, 0x38, 0xbe,
  0xd6, 0xdc, 0x40, 0xbe, 0x39, 0x33, 0x34, 0x3e, 0xe5, 0xc4, 0x1b, 0xbe,
  0xe1, 0xf7, 0x1b, 0xbe, 0x38, 0x0d, 0xe2, 0x3d, 0x37, 0x44, 0x2b, 0x3d,
  0x94, 0x7a, 0x68, 0x3d, 0x84, 0xb4, 0x05, 0x3e, 0x7f, 0xbd, 0x92, 0xbe,
  0x39, 0x3b, 0x45, 0x3e, 0x36, 0xc4, 0xf6, 0xbd, 0xad, 0xa3, 0xc1, 0xbd,
  0x20, 0x32, 0x52, 0xbe, 0x91, 0xdb, 0x83, 0x3e, 0x72, 0xe2, 0x5e, 0x3e,
  0x18, 0xcb, 0x75, 0x3d, 0x7d, 0x5c, 0x28, 0xbe, 0xc6, 0x50, 0x21, 0x3e,
  0xc3, 0xe6, 0xb9, 0xbd, 0x9e, 0x85, 0xdf, 0xbd, 0x90, 0xcb, 0xd9, 0x3d,
  0xb6, 0xd8, 0xbf, 0x3e, 0x98, 0x7b, 0x96, 0xbd, 0x03, 0xbc, 0x00, 0x3f,
  0xcb, 0x7b, 0x00, 0x3d, 0xa7, 0xb6, 0xcd, 0xbe, 0x21, 0x79, 0xf8, 0xbe,
  0x72, 0xda, 0x03, 0xbf, 0xbd, 0xea, 0x24, 0x3d, 0x8c, 0xc0, 0x54, 0xbe,
  0x60, 0x6f, 0xae, 0xbe, 0x13, 0xbf, 0x63, 0xbe, 0x2e, 0x02, 0xd5, 0xbe,
  0x88, 0x6e, 0x99, 0xbd, 0xff, 0x6b, 0xd4, 0x3c, 0xf5, 0x12, 0x50, 0xbb,
  0x9e, 0x44, 0x1e, 0x3f, 0xb5, 0x8b, 0x83, 0x3d, 0x00, 0xd1, 0xe5, 0x3d,
  0xa8, 0xbc, 0x6e, 0xbd, 0x04, 0x9c, 0x14, 0xbe, 0x52, 0x88, 0x29, 0xbe,
  0xc9, 0xc4, 0x43, 0x3d, 0x8b, 0x89, 0x14, 0x3d, 0x22, 0x3d, 0x0e, 0xbe,
  0x6f, 0x8e, 0x46, 0x3d, 0x40, 0x00, 0x8b, 0x3d, 0x2e, 0x2e, 0xde, 0xbd,
  0x71, 0x1b, 0xa0, 0xbd, 0xd7, 0xea, 0x0a, 0xbe, 0x8c, 0x23, 0x02, 0xbc,
  0x9d, 0x8a, 0xa3, 0xbc, 0xd4, 0xe3, 0x07, 0xbd, 0xa4, 0x70, 0xaa, 0x3c,
  0xa4, 0xdc, 0x25, 0xbe, 0x31, 0x07, 0xf2, 0xbc, 0x21, 0x91, 0x90, 0x3d,
  0x7c, 0x45, 0x52, 0xbe, 0x13, 0x58, 0xd7, 0xbc, 0xc1, 0xc0, 0x69, 0xbc,
  0x16, 0xc6, 0x6b, 0xbe, 0x5c, 0xd3, 0x99, 0xb8, 0x84, 0x43, 0x29, 0x39,
  0x18, 0xbe, 0xd9, 0xbd, 0x98, 0x77, 0xba, 0xbe, 0x91, 0x0e, 0x39, 0x3e,
  0xbf, 0xb9, 0x41, 0xbe, 0xc3, 0x71, 0x33, 0xbe, 0xec, 0x9b, 0x7f, 0x3d,
  0x45, 0xf2, 0x5c, 0x3c, 0xfc, 0xe8, 0x81, 0x3e, 0xe9, 0xf3, 0x31, 0x3d,
  0x4c, 0x9d, 0xec, 0x3d, 0x20, 0x0b, 0x28, 0xbe, 0x3f, 0xc2, 0x3a, 0xbe,
  0x16, 0xce, 0x4e, 0xbe, 0x0c, 0x12, 0x10, 0xbd, 0x2f, 0x17, 0x36, 0xbe,
  0x5f, 0x80, 0x62, 0xbd, 0x40, 0x73, 0x6a, 0x3e, 0x0c, 0x9d, 0xbc, 0xbe,
  0xce, 0xc3, 0x2e, 0x3d, 0x94, 0x14, 0x50, 0x3c, 0xa2, 0x46, 0x40, 0xbe,
  0x52, 0xc3, 0xa6, 0x3e, 0x66, 0x09, 0x9f, 0xbc, 0xd6, 0x04, 0xb0, 0x3e,
  0x45, 0x7e, 0x74, 0x3b, 0x53, 0x32, 0x31, 0x3e, 0x7b, 0x27, 0xe7, 0xbd,
  0xd5, 0x0f, 0xa7, 0xbe, 0x43, 0x62, 0xbf, 0xbe, 0x84, 0xdc, 0x26, 0xbe,
  0xdf, 0x1f, 0x97, 0xbe, 0xba, 0xb5, 0x4c, 0xbd, 0x8f, 0x11, 0x4c, 0xbd,
  0xbc, 0xe8, 0xb6, 0xbc, 0x17, 0x30, 0x3e, 0x3f, 0xba, 0x9d, 0xe0, 0x3c,
  0xc5, 0xb5, 0x8d, 0x3d, 0x94, 0xd5, 0x2c, 0xbf, 0x6f, 0x5c, 0xeb, 0xbc,
  0x4b, 0x15, 0xc1, 0xbf, 0x04, 0x11, 0xe3, 0x3d, 0x03, 0x4a, 0x34, 0x3e,
  0xe8, 0x27, 0x1c, 0x3e, 0x0a, 0x2f, 0x2f, 0xbd, 0xfe, 0x40, 0x8d, 0xbd,
  0x5d, 0xc5, 0x37, 0xbf, 0xac, 0x27, 0x1e, 0xbe, 0x23, 0x7b, 0xd1, 0xbf,
  0x80, 0xee, 0x85, 0xbe, 0x9b, 0x39, 0xfa, 0xbd, 0x40, 0x09, 0x5d, 0xbd,
  0x1c, 0xd0, 0x54, 0xbb, 0xa7, 0xcb, 0x09, 0xbc, 0x76, 0x27, 0xa1, 0xbe,
  0xc5, 0xae, 0x8e, 0xbd, 0x0e, 0x23, 0x19, 0xbf, 0x28, 0x4f, 0x91, 0xbe,
  0x33, 0xbb, 0xd1, 0x3d, 0x54, 0xe0, 0x33, 0xbe, 0x2f, 0x94, 0x18, 0xbc,
  0xc9, 0xbe, 0x55, 0xbd, 0x52, 0xfc, 0x26, 0x3f, 0x20, 0xbb, 0x24, 0xbd,
  0xd5, 0x3f, 0x0d, 0x3e, 0xbf, 0x3c, 0x44, 0xbe, 0x92, 0x2d, 0x3e, 0xbe,
  0x0d, 0xb1, 0x43, 0x3d, 0x3b, 0x50, 0x1d, 0xbe, 0xe9, 0x67, 0x22, 0xbe,
  0x81, 0xf3, 0x1c, 0xbe, 0xe0, 0xfe, 0x17, 0x3b, 0x57, 0xe4, 0xb6, 0xbd,
  0x75, 0x1f, 0xa1, 0xbd, 0x46, 0x2a, 0x40, 0xbe, 0xf0, 0x34, 0xd6, 0xbd,
  0xca, 0xea, 0x20, 0xbd, 0xd8, 0x48, 0x48, 0xbc, 0x39, 0xc2, 0x1b, 0x3e,
  0x37, 0x7e, 0x86, 0x3d, 0x6d, 0xaf, 0xaf, 0x3e, 0x75, 0x59, 0x15, 0xbd,
  0x9d, 0xb7, 0x7a, 0x3d, 0x96, 0x08, 0x93, 0xbc, 0xe3, 0x3c, 0x05, 0xbd,
  0x81, 0xa5, 0xb4, 0xbc, 0xfc, 0xb8, 0x9e, 0x3e, 0x45, 0xc4, 0x92, 0xbb,
  0xcd, 0x39, 0x14, 0x3e, 0x2b, 0x15, 0x4e, 0xbd, 0xe7, 0x64, 0x1b, 0x3e,
  0xd8, 0x94, 0xcd, 0xbd, 0xaf, 0x08, 0x2e, 0xbd, 0xfd, 0x69, 0xf8, 0xbc,
  0x94, 0x13, 0x18, 0xbe, 0x65, 0x7c, 0xcb, 0x3d, 0x9c, 0xe1, 0xa4, 0xbd,
  0x02, 0x3e, 0xff, 0xbd, 0x05, 0x0b, 0x89, 0xbe, 0xb4, 0x41, 0x55, 0x39,
  0x53, 0xc2, 0x2e, 0x3d, 0x70, 0xe6, 0x75, 0xbc, 0xef, 0x76, 0x5b, 0x3d,
  0xc9, 0xa7, 0x9f, 0xbe, 0xe2, 0xf1, 0x93, 0x3e, 0xe4, 0x02, 0xc0, 0x3d,
  0x27, 0x47, 0xd5, 0x3c, 0xd2, 0xc4, 0xfa, 0x3c, 0xb3, 0x0b, 0x6d, 0xbc,
  0xa8, 0xa9, 0x2e, 0xbc, 0x9a, 0x15, 0x4c, 0x3e, 0x0b, 0x4f, 0xc4, 0xbe,
  0x43, 0xa9, 0xf8, 0x3e, 0xfe, 0x50, 0xac, 0x3d, 0xa2, 0x76, 0xe6, 0x3d,
  0x02, 0x1b, 0x56, 0x3c, 0xcc, 0x44, 0x8c, 0xbd, 0xb3, 0x01, 0x88, 0xbd,
  0xa9, 0x85, 0xc7, 0xbd, 0xf7, 0x58, 0x21, 0xbf, 0xd8, 0xa6, 0x6d, 0xbe,
  0x72, 0xab, 0x3d, 0x3e, 0x8e, 0x35, 0x81, 0x3d, 0x17, 0x19, 0xbd, 0xbd,
  0x97, 0xd0, 0x94, 0xbd, 0x93, 0xbf, 0x73, 0xbd, 0x62, 0xe1, 0xe9, 0xbd,
  0xb4, 0x77, 0x1a, 0xbf, 0x6e, 0x3a, 0x40, 0xbe, 0xa6, 0xa8, 0x69, 0x3c,
  0x58, 0xc0, 0x0b, 0xbe, 0x5a, 0xfd, 0x0c, 0x3e, 0x0b, 0xe0, 0xf0, 0xbd,
  0xa7, 0xc9, 0x45, 0xbe, 0x17, 0x59, 0xd2, 0xbd, 0x8e, 0x6b, 0x80, 0xbe,
  0x76, 0x0e, 0x81, 0xbe, 0xcd, 0xc6, 0xd9, 0x3d, 0x28, 0x7e, 0x2b, 0x3e,
  0x38, 0x60, 0x07, 0x3e, 0x84, 0xfd, 0xae, 0xbe, 0xbd, 0xa1, 0xd2, 0xbe,
  0xad, 0xbf, 0x43, 0x3e, 0x7b, 0x54, 0x34, 0x3d, 0x25, 0xdd, 0x00, 0x3e,
  0xd4, 0x8d, 0xee, 0xbd, 0x95, 0x18, 0x0a, 0xbe, 0x89, 0x08, 0xa5, 0x3e,
  0xfb, 0x0c, 0x63, 0xbe, 0x1c, 0x4f, 0xad, 0xbe, 0xca, 0xa9, 0xb5, 0xbb,
  0x65, 0xa9, 0xc3, 0x3d, 0xe2, 0xc0, 0x80, 0x3e, 0x75, 0xde, 0xa1, 0xbe,
  0xc6, 0xfa, 0xf1, 0x3b, 0x7e, 0xf4, 0xa4, 0xbb, 0x18, 0x81, 0x59, 0xbe,
  0xf9, 0x8d, 0xc7, 0xbe, 0x1e, 0xf4, 0xce, 0xbc, 0x75, 0x6f, 0x64, 0xbe,
  0x6c, 0xba, 0xc4, 0x3e, 0x4e, 0xa5, 0xea, 0xbc, 0x2b, 0x90, 0x2b, 0x3e,
  0x82, 0x8f, 0xea, 0xbe, 0xa4, 0x51, 0x84, 0xbd, 0x6a, 0x5e, 0x6e, 0xbd,
  0xfc, 0xe1, 0xa4, 0xbe, 0xfd, 0x80, 0xbd, 0xbd, 0xe8, 0x5b, 0xc7, 0xbe,
  0xf7, 0x7c, 0x06, 0xbf, 0x59, 0x26, 0xb8, 0xbe, 0x25, 0xa8, 0x56, 0xbe,
  0xb0, 0xa1, 0x90, 0xbb, 0xf5, 0x61, 0xb7, 0xbc, 0x66, 0xb3, 0xf1, 0xbd,
  0xc1, 0xb2, 0x8c, 0xbd, 0xf7, 0x13, 0xc1, 0x3d, 0x67, 0x5a, 0x30, 0xbd,
  0x5e, 0xbf, 0x53, 0x3d, 0xed, 0x6d, 0x99, 0xbd, 0xf1, 0x0e, 0x26, 0xba,
  0x91, 0xe1, 0xd3, 0xbb, 0x12, 0xff, 0x8a, 0x3e, 0xd7, 0x2d, 0x49, 0x3d,
  0xe9, 0x99, 0x1e, 0x3e, 0x98, 0xab, 0x9d, 0xbd, 0xbd, 0xad, 0x80, 0x3e,
  0xdf, 0xdf, 0x31, 0x3e, 0x4b, 0x8c, 0x9e, 0x3c, 0x2f, 0x82, 0x1b, 0xbd,
  0x29, 0x46, 0xe8, 0x3e, 0xe2, 0xca, 0x69, 0x3b, 0x61, 0x26, 0x68, 0x3e,
  0x32, 0x14, 0x88, 0x3e, 0x83, 0x24, 0xaf, 0x3d, 0x2a, 0x27, 0xfc, 0x3b,
  0xa5, 0x5d, 0xce, 0xbe, 0xb6, 0xd7, 0xc7, 0xbe, 0xb6, 0x8e, 0x2e, 0xbd,
  0xc0, 0xd2, 0x5a, 0x3e, 0x3e, 0x7e, 0x3b, 0x3e, 0x67, 0xf1, 0x83, 0xbe,
  0xa4, 0xe0, 0x85, 0x3e, 0xef, 0x65, 0x0e, 0xbe, 0x1f, 0x7d, 0x07, 0xbf,
  0x0a, 0x98, 0xfc, 0xbe, 0x32, 0xf7, 0xb7, 0x3d, 0x27, 0xd5, 0x4f, 0xbd,
  0x07, 0x65, 0x80, 0x3e, 0xee, 0x7c, 0x60, 0xbe, 0x1b, 0x61, 0x6e, 0xbe,
  0xd5, 0xee, 0xbb, 0x3e, 0xf8, 0x35, 0x06, 0xbf, 0x10, 0x80, 0xd7, 0xbe,
  0xe4, 0x86, 0x10, 0x3c, 0xb1, 0x4d, 0x91, 0xbb, 0xb2, 0x3a, 0x9f, 0x3e,
  0x3c, 0x40, 0x2e, 0xbc, 0xab, 0xbc, 0x8e, 0xbd, 0xbe, 0xd6, 0x51, 0x3d,
  0xec, 0x00, 0x02, 0xbf, 0x50, 0x1e, 0xd6, 0xbe, 0xb7, 0x34, 0x2d, 0x3e,
  0xb2, 0x9f, 0x3a, 0xbd, 0xab, 0xfa, 0x88, 0x3e, 0xf6, 0x1a, 0x08, 0x3e,
  0x1d, 0x43, 0xa3, 0x3e, 0x26, 0xde, 0xff, 0xff, 0x10, 0x00, 0x00, 0x00,
  0x0a, 0x00, 0x00, 0x00, 0x1c, 0x00, 0x00, 0x00, 0x38, 0x00, 0x00, 0x00,
  0x04, 0x00, 0x00, 0x00, 0x10, 0x00, 0x00, 0x00, 0x04, 0x00, 0x00, 0x00,
  0x01, 0x00, 0x00, 0x00, 0x08, 0x00, 0x00, 0x00, 0x1a, 0x00, 0x00, 0x00,
  0x73, 0x65, 0x71, 0x75, 0x65, 0x6e, 0x74, 0x69, 0x61, 0x6c, 0x2f, 0x63,
  0x6f, 0x6e, 0x76, 0x32, 0x64, 0x5f, 0x31, 0x2f, 0x43, 0x6f, 0x6e, 0x76,
  0x32, 0x44, 0x00, 0x00, 0x9c, 0xdd, 0xff, 0xff, 0xa6, 0xde, 0xff, 0xff,
  0x04, 0x00, 0x00, 0x00, 0x80, 0x01, 0x00, 0x00, 0x95, 0x24, 0x5c, 0xbe,
  0xd3, 0x36, 0x8b, 0xbe, 0xb4, 0x3d, 0xee, 0x3c, 0x69, 0x62, 0x0c, 0x3e,
  0x3b, 0x38, 0xab, 0xbe, 0x34, 0x6a, 0x34, 0x3c, 0x07, 0x9a, 0xed, 0x3e,
  0x96, 0xd1, 0x7b, 0x3e, 0x89, 0xf9, 0x6d, 0xbd, 0x69, 0x0f, 0x81, 0x3e,
  0xbe, 0x61, 0x72, 0xbe, 0x59, 0x1a, 0xa2, 0x3c, 0xe7, 0xcf, 0x1b, 0xbc,
  0x5c, 0x14, 0xe9, 0x3c, 0x02, 0x49, 0x90, 0xbd, 0xd2, 0xca, 0x87, 0x3c,
  0xf4, 0x32, 0x1b, 0x3e, 0x21, 0x98, 0x45, 0xbd, 0x1a, 0xb0, 0x9f, 0xbc,
  0x5a, 0xde, 0x1e, 0x3e, 0xe4, 0x81, 0x14, 0x3c, 0x5b, 0x9a, 0x6d, 0xbd,
  0xc0, 0x43, 0x4b, 0x3c, 0xe7, 0x73, 0x13, 0xbd, 0x1f, 0x81, 0x4d, 0xbd,
  0x4d, 0xf3, 0xe3, 0xbc, 0x94, 0xaf, 0x27, 0xbd, 0xc3, 0x99, 0x33, 0xbd,
  0xbf, 0xbb, 0x76, 0x3d, 0xc4, 0x90, 0x2a, 0xbc, 0xda, 0xa7, 0x0d, 0x3d,
  0x78, 0x2a, 0xeb, 0x3d, 0xb7, 0x9e, 0x20, 0xbc, 0xc8, 0x65, 0x11, 0x3b,
  0xc5, 0x75, 0x03, 0x3e, 0xc6, 0xa2, 0xb9, 0xbc, 0xdf, 0x08, 0xdd, 0xbd,
  0x13, 0x02, 0x77, 0xbd, 0xca, 0x23, 0x30, 0xbe, 0xf3, 0x29, 0x6c, 0xbe,
  0xa4, 0x2e, 0xff, 0xbc, 0x64, 0xef, 0x99, 0x3d, 0x8d, 0x38, 0x86, 0xbe,
  0x65, 0x0e, 0x92, 0xbb, 0x1b, 0xea, 0x87, 0x3d, 0xfc, 0x62, 0xab, 0xbe,
  0x7d, 0xa7, 0xee, 0xbd, 0xb2, 0xf2, 0x9e, 0x3d, 0x99, 0xb6, 0xb0, 0x3e,
  0xc4, 0xcb, 0xaf, 0x3c, 0xe8, 0xbc, 0xa0, 0xbe, 0xb3, 0x7b, 0xb6, 0x3d,
  0x39, 0xd2, 0xff, 0x3c, 0x41, 0x61, 0xb2, 0xbe, 0xf6, 0xf3, 0xbc, 0x3e,
  0xf1, 0x34, 0x75, 0xbd, 0x55, 0x7b, 0x2d, 0xbe, 0x7d, 0x7f, 0xb7, 0x3e,
  0x34, 0x13, 0x18, 0xbd, 0xa7, 0xe2, 0x8d, 0xbe, 0x29, 0x29, 0x44, 0x3d,
  0x33, 0x71, 0x62, 0xbe, 0xdb, 0x74, 0x93, 0x3d, 0x26, 0x0b, 0xa1, 0xbd,
  0xe5, 0x34, 0x8b, 0xbe, 0x99, 0x32, 0x90, 0xbc, 0x93, 0x33, 0xd4, 0xbe,
  0xbe, 0x1b, 0x81, 0xbd, 0x03, 0x86, 0xa7, 0x3d, 0xf5, 0xd6, 0x99, 0x3d,
  0x5b, 0x52, 0xcf, 0xbe, 0x9b, 0xcc, 0x29, 0xbe, 0x7f, 0xe4, 0xb4, 0x3e,
  0xc7, 0xbd, 0x2b, 0xbe, 0x88, 0x53, 0x87, 0xbe, 0xd1, 0x6e, 0x14, 0x3e,
  0xbf, 0x11, 0x54, 0xbe, 0x88, 0x4c, 0x78, 0xbe, 0x39, 0xea, 0x95, 0x3e,
  0x56, 0x95, 0xf6, 0x3d, 0x0b, 0x38, 0xcc, 0x3d, 0xd2, 0x3e, 0x29, 0xbe,
  0x81, 0x19, 0x05, 0x3e, 0xee, 0x39, 0x2e, 0xbe, 0xec, 0xc3, 0x09, 0x3d,
  0x05, 0x71, 0x28, 0xbe, 0xe8, 0xf1, 0x44, 0x3e, 0x99, 0x60, 0x91, 0xbe,
  0x19, 0x7e, 0x25, 0x3e, 0x0f, 0x7c, 0x29, 0x3e, 0x51, 0xe3, 0x8f, 0xbe,
  0xb3, 0x62, 0x8a, 0xbc, 0x9e, 0x2b, 0x8c, 0xbd, 0x9a, 0x1a, 0xc1, 0x3e,
  0x9f, 0x58, 0x80, 0x3d, 0x92, 0x65, 0x9f, 0xbe, 0xfe, 0xdf, 0xff, 0xff,
  0x10, 0x00, 0x00, 0x00, 0x09, 0x00, 0x00, 0x00, 0x1c, 0x00, 0x00, 0x00,
  0x38, 0x00, 0x00, 0x00, 0x04, 0x00, 0x00, 0x00, 0x08, 0x00, 0x00, 0x00,
  0x04, 0x00, 0x00, 0x00, 0x03, 0x00, 0x00, 0x00, 0x01, 0x00, 0x00, 0x00,
  0x18, 0x00, 0x00, 0x00, 0x73, 0x65, 0x71, 0x75, 0x65, 0x6e, 0x74, 0x69,
  0x61, 0x6c, 0x2f, 0x63, 0x6f, 0x6e, 0x76, 0x32, 0x64, 0x2f, 0x43, 0x6f,
  0x6e, 0x76, 0x32, 0x44, 0x00, 0x00, 0x00, 0x00, 0x74, 0xdf, 0xff, 0xff,
  0x7e, 0xe0, 0xff, 0xff, 0x04, 0x00, 0x00, 0x00, 0xc0, 0x00, 0x00, 0x00,
  0xef, 0x86, 0x22, 0x3e, 0x98, 0xef, 0x2d, 0x3f, 0x14, 0x30, 0xd0, 0xbe,
  0xcc, 0x8f, 0xaf, 0x3e, 0x57, 0x02, 0x2c, 0x3e, 0x08, 0x66, 0x5e, 0xbd,
  0xe9, 0xac, 0x13, 0x3f, 0x79, 0xd6, 0x6a, 0x3e, 0x30, 0x71, 0xad, 0x3e,
  0xff, 0x86, 0xb3, 0xbd, 0x42, 0xca, 0xc1, 0xbd, 0x80, 0x92, 0xaa, 0xbc,
  0xa2, 0x8b, 0x09, 0xbf, 0x2e, 0xb5, 0x96, 0x3e, 0x48, 0xbe, 0xdb, 0x3e,
  0x6f, 0x21, 0x06, 0xbd, 0x64, 0xa1, 0x25, 0xbe, 0xbf, 0x64, 0xbe, 0xbf,
  0x64, 0x20, 0xce, 0xbe, 0x21, 0x2d, 0xe0, 0x3d, 0x09, 0x29, 0x6a, 0x3d,
  0x56, 0x30, 0x2b, 0xbe, 0xaf, 0x70, 0xa0, 0xbf, 0xb8, 0x79, 0x38, 0x3d,
  0x26, 0x7d, 0x21, 0x3e, 0x5e, 0x63, 0xb3, 0x3c, 0x07, 0x6f, 0xda, 0x3e,
  0x35, 0x07, 0xae, 0xbd, 0xa4, 0x65, 0xac, 0xbe, 0x2e, 0x31, 0x30, 0x3e,
  0xf0, 0x6e, 0xf1, 0x3e, 0x6a, 0xd2, 0x92, 0xbd, 0x20, 0x4a, 0x9e, 0xbe,
  0xb2, 0xee, 0x11, 0xbf, 0x60, 0x90, 0x9e, 0xbe, 0x31, 0x40, 0xbd, 0x3e,
  0x39, 0x1c, 0x4d, 0xbd, 0x33, 0x91, 0x50, 0xbe, 0xf5, 0x73, 0x3b, 0xbf,
  0xa4, 0x59, 0xa3, 0x3e, 0xb2, 0x25, 0x5f, 0x3e, 0x9b, 0xe9, 0xd6, 0x3d,
  0x91, 0x75, 0x3e, 0xbd, 0xb1, 0xb3, 0x8f, 0xbc, 0xcb, 0x65, 0xb8, 0x3e,
  0xae, 0x52, 0x8b, 0x3e, 0x3e, 0x0d, 0xd4, 0x3e, 0x78, 0xf3, 0x9f, 0x3c,
  0x16, 0xe1, 0xff, 0xff, 0x10, 0x00, 0x00, 0x00, 0x08, 0x00, 0x00, 0x00,
  0x14, 0x00, 0x00, 0x00, 0x30, 0x00, 0x00, 0x00, 0x02, 0x00, 0x00, 0x00,
  0x03, 0x00, 0x00, 0x00, 0x10, 0x00, 0x00, 0x00, 0x19, 0x00, 0x00, 0x00,
  0x73, 0x65, 0x71, 0x75, 0x65, 0x6e, 0x74, 0x69, 0x61, 0x6c, 0x2f, 0x64,
  0x65, 0x6e, 0x73, 0x65, 0x5f, 0x31, 0x2f, 0x4d, 0x61, 0x74, 0x4d, 0x75,
  0x6c, 0x00, 0x00, 0x00, 0x84, 0xe0, 0xff, 0xff, 0x8e, 0xe1, 0xff, 0xff,
  0x04, 0x00, 0x00, 0x00, 0x00, 0x1c, 0x00, 0x00, 0x0c, 0xb2, 0x4d, 0x3e,
  0x21, 0x46, 0x66, 0xbd, 0x69, 0x1c, 0x82, 0x3d, 0xee, 0x4e, 0xfc, 0xbd,
  0xba, 0x93, 0x3d, 0xbe, 0x37, 0xff, 0x80, 0xbd, 0x30, 0x20, 0xf7, 0x3d,
  0xc7, 0x56, 0x78, 0xbe, 0x6d, 0xee, 0x63, 0xbc, 0xdc, 0x0d, 0x25, 0x3e,
  0x90, 0x1b, 0x2d, 0xbe, 0x60, 0xb5, 0xd8, 0x3d, 0x31, 0xa1, 0x97, 0x3e,
  0x66, 0x92, 0xa2, 0x3c, 0x1b, 0x8d, 0x3a, 0x3e, 0x8b, 0x19, 0x05, 0xbe,
  0x33, 0x51, 0xa6, 0x3d, 0xd7, 0xcc, 0xb0, 0x3c, 0x98, 0x8d, 0x1f, 0x3e,
  0xdd, 0x98, 0x2c, 0x3d, 0x2e, 0x37, 0xe9, 0xbc, 0x02, 0xf8, 0x6f, 0xbd,
  0x82, 0xd5, 0xa4, 0xbd, 0x72, 0x66, 0xf7, 0xbc, 0x64, 0xe1, 0xa3, 0x3d,
  0xee, 0x45, 0x0e, 0xbd, 0xb8, 0x13, 0x51, 0xbe, 0xe1, 0x56, 0xa7, 0x3d,
  0xfa, 0x70, 0xd8, 0x3d, 0x93, 0x81, 0x2b, 0xbe, 0xe2, 0x31, 0x38, 0x3d,
  0xc5, 0x11, 0x59, 0xbc, 0x9d, 0xb4, 0x58, 0x3e, 0x4f, 0x79, 0x82, 0xbd,
  0x21, 0x04, 0x3b, 0xbe, 0x25, 0x88, 0xd8, 0xbd, 0x9e, 0x4b, 0xb7, 0xbc,
  0x5a, 0xa5, 0x3a, 0xbe, 0x64, 0xcf, 0xe8, 0xbd, 0x19, 0x4a, 0x2e, 0xbe,
  0xdb, 0x24, 0x8e, 0x3b, 0xa2, 0x17, 0xe1, 0x3d, 0x6f, 0x1e, 0x58, 0xbd,
  0x3b, 0x0a, 0x84, 0xbd, 0x74, 0xe1, 0x0b, 0x3e, 0x57, 0xa2, 0xb3, 0x3d,
  0x95, 0xfe, 0xbe, 0x3d, 0xbb, 0xf1, 0x93, 0x3d, 0x64, 0xca, 0x25, 0xbe,
  0xc6, 0xa2, 0xd1, 0xbd, 0xc0, 0x55, 0x48, 0xbc, 0x4d, 0xb6, 0x10, 0x3d,
  0xe9, 0xc1, 0x72, 0xbe, 0x54, 0xf4, 0xbf, 0x3d, 0x27, 0xe7, 0xb0, 0x3c,
  0xb9, 0x6f, 0xe7, 0x3d, 0xfa, 0xd2, 0x8d, 0x3d, 0x39, 0xd0, 0x13, 0x3e,
  0x49, 0x52, 0x7a, 0x3d, 0xe9, 0xd2, 0xf1, 0xbd, 0xd7, 0x36, 0x19, 0xbe,
  0xc4, 0x0a, 0xa5, 0x3c, 0xf2, 0x68, 0x42, 0xbd, 0x88, 0x30, 0xbd, 0x3c,
  0xeb, 0x5a, 0x88, 0x3d, 0xea, 0xbe, 0xde, 0x3c, 0x0b, 0x25, 0xa9, 0x3d,
  0xe0, 0xbd, 0x21, 0xbe, 0x96, 0xed, 0x06, 0xbe, 0xe6, 0x51, 0x64, 0x3e,
  0xf0, 0xe6, 0x2b, 0xbd, 0xfd, 0xcc, 0xc4, 0xbd, 0xa5, 0xce, 0xbf, 0x3d,
  0x68, 0x5e, 0xaa, 0x3c, 0x82, 0x3c, 0x25, 0xbd, 0x5e, 0xb1, 0xe2, 0xbd,
  0xb6, 0x22, 0x30, 0x3e, 0xe5, 0x68, 0x15, 0xbe, 0x3f, 0x13, 0x5a, 0xbe,
  0x87, 0x38, 0x3e, 0x3d, 0x38, 0x4b, 0x21, 0xbe, 0xd4, 0xba, 0xb5, 0xbd,
  0x05, 0x79, 0x8c, 0xbd, 0xfd, 0x3e, 0xac, 0xbd, 0x6c, 0xa7, 0x86, 0xbe,
  0x6e, 0x86, 0xc3, 0xbc, 0xae, 0x64, 0x3f, 0xbe, 0x56, 0x4b, 0x6a, 0xbe,
  0x44, 0xa7, 0x42, 0xbe, 0x08, 0xa7, 0xdc, 0x3c, 0xad, 0x84, 0xb4, 0xbd,
  0xbc, 0x6f, 0x78, 0x3d, 0xf1, 0x25, 0xb1, 0x3d, 0x29, 0x02, 0xe7, 0x3d,
  0xc9, 0x60, 0x24, 0xbc, 0x4e, 0x79, 0x8f, 0x3c, 0xc2, 0xea, 0x6e, 0xbe,
  0x0d, 0xd6, 0x8d, 0xbd, 0xf4, 0x12, 0x8d, 0x3c, 0xc1, 0x9e, 0xfa, 0xbd,
  0xe0, 0x99, 0x91, 0xbc, 0xa6, 0x1b, 0x26, 0xbe, 0x77, 0x0c, 0xfb, 0xbd,
  0x26, 0x16, 0x98, 0xbe, 0xdd, 0xc2, 0x97, 0x3c, 0x1a, 0x6f, 0x30, 0xbb,
  0x95, 0xd0, 0xb9, 0x3d, 0x27, 0xa2, 0x74, 0xbe, 0xe1, 0xd1, 0x8e, 0xbd,
  0x11, 0x3a, 0x1f, 0xbd, 0xfb, 0x16, 0xd4, 0xbd, 0xa2, 0x1f, 0x18, 0xbe,
  0xbd, 0x89, 0x30, 0x3f, 0x75, 0x68, 0x3c, 0xbd, 0xbb, 0xc1, 0x93, 0x3e,
  0x24, 0x87, 0x12, 0xbd, 0xdf, 0xbf, 0x0b, 0xbe, 0x89, 0x1c, 0x16, 0xbe,
  0x97, 0xca, 0x8e, 0xbd, 0x49, 0x12, 0x64, 0xbe, 0xae, 0xf8, 0x57, 0xbe,
  0xda, 0x40, 0x20, 0xbc, 0x9d, 0xa9, 0xc4, 0xbd, 0x50, 0x13, 0x96, 0xbd,
  0x98, 0x28, 0x83, 0x3c, 0xc2, 0x1d, 0x0f, 0x3e, 0x89, 0xeb, 0x2e, 0xbe,
  0x00, 0x4e, 0xe0, 0xbd, 0xd1, 0x1a, 0xdb, 0x3e, 0x51, 0x08, 0x12, 0x3e,
  0x96, 0x53, 0x6a, 0x3e, 0xfa, 0x77, 0xfa, 0xbc, 0x53, 0x7e, 0x04, 0xbe,
  0x79, 0xbc, 0x23, 0xbe, 0xf3, 0x9a, 0x50, 0xbe, 0x4f, 0xc8, 0xe3, 0xbd,
  0xec, 0x70, 0xe4, 0xbd, 0xe8, 0xa3, 0x09, 0x3d, 0x9a, 0x32, 0x5e, 0xbd,
  0x5e, 0x9c, 0xa1, 0xbd, 0xb9, 0xb6, 0x51, 0xbe, 0xe3, 0x12, 0x09, 0xbe,
  0x20, 0xf9, 0xba, 0xbd, 0x2f, 0x5b, 0x20, 0xbe, 0x1d, 0xb3, 0x31, 0x3f,
  0xba, 0x3b, 0x7a, 0x3d, 0xd4, 0xb4, 0xd8, 0x3b, 0xf3, 0xbd, 0x4b, 0xbe,
  0x56, 0xf1, 0x41, 0xbe, 0xb6, 0x43, 0x9c, 0x3d, 0x85, 0x23, 0x1c, 0xbe,
  0x82, 0xf0, 0x00, 0xbe, 0x0e, 0x2b, 0x01, 0xbc, 0x46, 0x7d, 0xff, 0xbd,
  0xe3, 0x02, 0x09, 0xbd, 0x41, 0xe3, 0x84, 0xbe, 0xe3, 0x0a, 0x7a, 0xbe,
  0xd1, 0xdd, 0x6b, 0xbe, 0x79, 0xd4, 0xae, 0x3c, 0x36, 0x0e, 0x0a, 0x3e,
  0xaa, 0x38, 0xd5, 0x3e, 0x68, 0x4a, 0x82, 0xbe, 0x67, 0xf8, 0xb3, 0xbd,
  0x3a, 0x35, 0x30, 0xbd, 0x79, 0xc1, 0x58, 0xbe, 0x5b, 0x13, 0x3a, 0xbe,
  0x8a, 0x9c, 0x9c, 0xbc, 0x65, 0x7b, 0xdf, 0xbd, 0x6e, 0x41, 0xb6, 0xbd,
  0xfc, 0xd6, 0x05, 0xbe, 0xc8, 0x5e, 0x8d, 0xbd, 0xc6, 0x82, 0x71, 0xbe,
  0x99, 0x7f, 0x16, 0xbe, 0x5f, 0x2a, 0x2d, 0x3e, 0x6a, 0x1d, 0x81, 0x3d,
  0xef, 0x84, 0x91, 0xbd, 0xd9, 0x34, 0x0e, 0x3f, 0x04, 0x5d, 0x69, 0x3c,
  0xa4, 0xaf, 0xbb, 0x3d, 0x39, 0xb7, 0x8d, 0xbe, 0x45, 0x24, 0x81, 0xbe,
  0x22, 0x87, 0x0e, 0xbe, 0x24, 0x3a, 0xb4, 0x3c, 0x66, 0x90, 0x02, 0xbd,
  0xfe, 0x71, 0xad, 0xbd, 0x00, 0x8a, 0xd9, 0xbc, 0xcf, 0xb4, 0xaa, 0xbd,
  0x77, 0x75, 0x8f, 0xbc, 0xfb, 0xd5, 0x07, 0xbe, 0x3b, 0xc6, 0x20, 0xbe,
  0xe7, 0x83, 0x27, 0xbe, 0x5d, 0xb0, 0x58, 0xbe, 0x0a, 0xa8, 0x19, 0x3f,
  0xbf, 0x6a, 0x3b, 0xbe, 0x51, 0x3b, 0xe3, 0x3e, 0xde, 0x6a, 0x20, 0xbe,
  0xb6, 0xa5, 0xfd, 0xbd, 0x72, 0x07, 0x46, 0xbe, 0xa5, 0xf1, 0x77, 0xbe,
  0x59, 0xcd, 0x19, 0xbd, 0x27, 0xca, 0x69, 0x3d, 0x3d, 0x4b, 0xe8, 0x3c,
  0xd5, 0xca, 0x99, 0xbd, 0x5e, 0x9d, 0x99, 0xbe, 0xe5, 0x5e, 0xf0, 0xbd,
  0xa3, 0x4a, 0x33, 0xbe, 0xba, 0x41, 0xfd, 0x3d, 0x09, 0x2e, 0x66, 0x3d,
  0x1e, 0xee, 0x48, 0x3d, 0x08, 0xf6, 0x00, 0x3d, 0x9a, 0x5d, 0xc0, 0x3d,
  0xf9, 0x3d, 0x5d, 0xbe, 0xba, 0x36, 0x20, 0x3d, 0x54, 0xe9, 0xd4, 0xbe,
  0x3c, 0x28, 0xa7, 0xbe, 0x9b, 0x0d, 0x93, 0xbe, 0x14, 0xa5, 0x9a, 0xbe,
  0x89, 0x66, 0x86, 0xbe, 0x3d, 0xd4, 0x0d, 0xbe, 0x9b, 0x51, 0xb4, 0xbe,
  0xf4, 0x0c, 0xaa, 0xbd, 0x1a, 0x8a, 0x87, 0xbd, 0x72, 0x6f, 0x30, 0xbe,
  0x39, 0x50, 0xf6, 0xbc, 0x58, 0x67, 0x36, 0xbe, 0x46, 0x2e, 0x19, 0xbe,
  0xc3, 0xbb, 0x41, 0xbd, 0xbd, 0x7b, 0x6a, 0x3e, 0x87, 0x02, 0x4e, 0xbc,
  0x9c, 0x3f, 0x46, 0xbd, 0xab, 0x88, 0x92, 0xbe, 0xa1, 0xcf, 0x02, 0x3e,
  0x79, 0x83, 0x57, 0xbe, 0xa2, 0x14, 0xb5, 0xbc, 0xa4, 0x83, 0x5a, 0xbc,
  0xd6, 0x1d, 0x90, 0x3d, 0x18, 0x06, 0x67, 0xbe, 0x7a, 0x9d, 0x44, 0x3e,
  0xf8, 0x93, 0x03, 0xbe, 0xc9, 0xf0, 0x38, 0xbc, 0x67, 0x30, 0xa1, 0x3d,
  0x05, 0x00, 0x3d, 0x3d, 0x1c, 0xfb, 0x4f, 0x3d, 0xef, 0x45, 0xbe, 0x3c,
  0x69, 0x76, 0x2e, 0x3e, 0x3f, 0x7b, 0xcf, 0x3d, 0x86, 0xf8, 0xa8, 0xbe,
  0x43, 0x18, 0xe5, 0x3d, 0x8a, 0xed, 0x71, 0xbe, 0xfe, 0xf2, 0xb7, 0x3d,
  0x90, 0xc6, 0xb5, 0xbb, 0x38, 0xf5, 0x99, 0xbe, 0x46, 0x5d, 0x42, 0xbe,
  0x74, 0x64, 0x4e, 0xbe, 0x29, 0x31, 0x7a, 0xbe, 0x5d, 0x3d, 0xd3, 0x3c,
  0xd1, 0x59, 0x04, 0x3e, 0x97, 0x94, 0xba, 0x3d, 0x80, 0x4d, 0x19, 0x3e,
  0xdc, 0xfc, 0xd6, 0xbc, 0x0d, 0xbe, 0x89, 0xbd, 0x31, 0x53, 0x7c, 0xbd,
  0xc8, 0xc7, 0x69, 0xbe, 0x45, 0x66, 0x67, 0x3d, 0x3c, 0xe6, 0xd6, 0xbd,
  0x7a, 0x73, 0x8d, 0x3d, 0x78, 0x9f, 0xa0, 0x3d, 0x25, 0x4c, 0x09, 0xbe,
  0x9d, 0xbf, 0x32, 0x3e, 0x5a, 0xd9, 0x8c, 0x3c, 0x1f, 0x40, 0x96, 0xbe,
  0x21, 0x89, 0xba, 0x3d, 0x7e, 0xc7, 0xfa, 0xbd, 0x42, 0xc1, 0x36, 0x3e,
  0xb7, 0xbf, 0x1f, 0x3e, 0x83, 0x29, 0x61, 0x3d, 0x2a, 0xf8, 0x75, 0xbd,
  0xbb, 0x04, 0x6c, 0xbd, 0xa6, 0x6f, 0xac, 0xbd, 0x9b, 0x7f, 0xac, 0x3d,
  0xce, 0xe1, 0xe6, 0xbd, 0xec, 0xc6, 0xa0, 0xbd, 0x99, 0x13, 0x8d, 0x3d,
  0xb3, 0x65, 0x50, 0xbe, 0x0a, 0x70, 0x31, 0x3c, 0x68, 0x6f, 0x50, 0x3e,
  0xb2, 0xb5, 0x82, 0xbe, 0xe9, 0xbe, 0xca, 0x3d, 0xc1, 0xc3, 0xa3, 0x3d,
  0x69, 0x74, 0x1b, 0xbe, 0x51, 0xce, 0x49, 0xbd, 0x41, 0xad, 0x5f, 0x3e,
  0xbb, 0x64, 0x4d, 0x3c, 0x58, 0x2b, 0xd0, 0x3d, 0xf2, 0xb7, 0x86, 0xbd,
  0x63, 0x41, 0x13, 0x3e, 0x13, 0x18, 0x9a, 0xbe, 0x74, 0x66, 0x21, 0x3e,
  0x23, 0xdb, 0x9b, 0x3c, 0xda, 0x32, 0x02, 0xbe, 0x9b, 0x2a, 0x05, 0xbe,
  0xa1, 0xb6, 0x89, 0xbc, 0xfe, 0x15, 0x85, 0xbd, 0xf3, 0x19, 0x43, 0x3e,
  0x4b, 0x36, 0x0e, 0x3d, 0xef, 0x05, 0x36, 0xbe, 0xa7, 0x81, 0xfc, 0x3d,
  0x63, 0x35, 0x20, 0x3e, 0x9c, 0x45, 0x8a, 0xbd, 0xed, 0xd4, 0xbf, 0x3d,
  0x4b, 0xbe, 0x9e, 0xbe, 0x1c, 0x79, 0x04, 0x3e, 0x60, 0x0e, 0x05, 0xbd,
  0x7f, 0xea, 0x71, 0x3e, 0x4c, 0xf2, 0x21, 0xbd, 0x82, 0x55, 0x85, 0xbe,
  0xa8, 0xe3, 0x24, 0x3d, 0xc4, 0xf1, 0xa9, 0xbd, 0x37, 0xcf, 0x64, 0xbe,
  0xad, 0x48, 0x0d, 0x3d, 0xf0, 0x97, 0x88, 0x3e, 0xf9, 0x1a, 0xb0, 0xbe,
  0xbe, 0x9e, 0xae, 0x3d, 0x39, 0x3f, 0xa6, 0xbc, 0x03, 0x57, 0x14, 0xbc,
  0x30, 0x30, 0x3b, 0xbd, 0x56, 0xbb, 0xd8, 0xbe, 0x0d, 0xae, 0x4c, 0x3e,
  0xd6, 0x11, 0xd2, 0xbd, 0x36, 0x76, 0x39, 0xbe, 0xe7, 0xa9, 0x84, 0xbd,
  0x54, 0x73, 0x66, 0xbe, 0xd9, 0xaa, 0x71, 0xbe, 0x5e, 0xc7, 0xae, 0x3e,
  0xd2, 0x1f, 0x6f, 0xbe, 0xf0, 0x81, 0xa3, 0xbc, 0xd1, 0x88, 0x36, 0x3e,
  0x18, 0x8e, 0x9a, 0x3c, 0x80, 0x5d, 0x0c, 0x3d, 0xe8, 0x16, 0xa5, 0x3a,
  0x0b, 0x54, 0x8d, 0xbe, 0x68, 0xd1, 0x3c, 0x3e, 0x6c, 0xd0, 0x19, 0x3e,
  0x00, 0xfb, 0x58, 0xbe, 0x1f, 0xe6, 0x0a, 0x3e, 0x12, 0x33, 0x8c, 0xbd,
  0xe6, 0x68, 0x56, 0xbe, 0xc8, 0x75, 0x22, 0x3e, 0xdd, 0x42, 0xa0, 0x3e,
  0xac, 0x12, 0x06, 0xbe, 0xb0, 0x44, 0xdd, 0x3d, 0x30, 0x4e, 0x9c, 0xbe,
  0x04, 0x94, 0xa5, 0xbd, 0xc8, 0xd8, 0x24, 0xbc, 0x79, 0xe3, 0xa3, 0xbe,
  0x63, 0x14, 0x27, 0xbe, 0x57, 0x11, 0xd4, 0xbe, 0xca, 0x89, 0x2e, 0x3d,
  0x36, 0x1e, 0x8c, 0x3c, 0x33, 0x30, 0x3e, 0xbe, 0xd3, 0xfd, 0xe0, 0x3b,
  0x87, 0x79, 0x12, 0xbe, 0xdc, 0xcf, 0xfc, 0xbd, 0xf7, 0xdd, 0x72, 0x3b,
  0x6e, 0x4e, 0xcd, 0x3d, 0xa1, 0x7e, 0xa3, 0xbd, 0xe4, 0x4d, 0x7a, 0xbe,
  0xa4, 0x3b, 0xdf, 0xbe, 0xa3, 0xf0, 0xd6, 0xbc, 0xda, 0x03, 0xbb, 0xbc,
  0xdb, 0xa7, 0x8d, 0xbe, 0x13, 0xd9, 0x10, 0x3d, 0x1d, 0x6b, 0xb6, 0xbe,
  0xaa, 0x9e, 0x18, 0xbe, 0x96, 0xbb, 0x41, 0xbd, 0x5b, 0x7d, 0x8a, 0xbe,
  0xd4, 0xa5, 0x21, 0x3c, 0xc5, 0x42, 0x26, 0xbe, 0x4b, 0x21, 0x09, 0xbe,
  0x9f, 0xc2, 0x2a, 0xbd, 0x3c, 0x61, 0xfc, 0x3d, 0x92, 0x4c, 0xf1, 0xbd,
  0x0f, 0x96, 0x5e, 0xbe, 0xdf, 0x4b, 0xc4, 0xbe, 0x8e, 0x3a, 0x14, 0x3c,
  0xc3, 0x9c, 0xcb, 0xbb, 0x02, 0x43, 0xce, 0xbd, 0xb9, 0xbc, 0xab, 0x3b,
  0xf8, 0xd3, 0x95, 0xbe, 0xe7, 0x23, 0xa8, 0xbd, 0xb4, 0x1a, 0xb5, 0xbd,
  0xf6, 0x81, 0x47, 0xbe, 0xd2, 0x67, 0x51, 0xbd, 0x89, 0xee, 0x1d, 0xbd,
  0x94, 0xb7, 0x63, 0xbd, 0x30, 0xbe, 0x05, 0xbd, 0xf0, 0x08, 0xa5, 0xbc,
  0x90, 0x03, 0x03, 0x3e, 0x24, 0x3b, 0x19, 0xbe, 0x55, 0xf1, 0xc4, 0xbe,
  0xe8, 0x7a, 0x41, 0xbb, 0xdd, 0x0a, 0x57, 0x3c, 0x3a, 0x4f, 0x0f, 0xbf,
  0x1a, 0x65, 0xb9, 0xbb, 0x83, 0x01, 0x04, 0xbe, 0x5c, 0xf7, 0x0c, 0xbe,
  0x21, 0x33, 0xa6, 0xbc, 0x6b, 0x84, 0x4b, 0xbe, 0x52, 0x4c, 0x9b, 0xbd,
  0x7e, 0xa4, 0xac, 0xbe, 0x59, 0x89, 0x07, 0xbd, 0x34, 0x48, 0x8d, 0xbd,
  0x31, 0x78, 0x2e, 0xbd, 0x64, 0x51, 0xa6, 0xbd, 0xc8, 0x20, 0xb9, 0xbc,
  0x6f, 0xb4, 0xf4, 0xbe, 0xa7, 0xfd, 0xc9, 0xbe, 0x88, 0xe3, 0xe8, 0xbb,
  0x0c, 0x03, 0xff, 0xbd, 0x91, 0x50, 0x2e, 0xbd, 0x14, 0xd9, 0x18, 0xbe,
  0xf4, 0x6e, 0x58, 0x3d, 0xfe, 0x73, 0x3c, 0xbd, 0x5d, 0x6b, 0x1c, 0xbd,
  0x17, 0x20, 0xed, 0xbd, 0x95, 0x35, 0x13, 0xbe, 0xb9, 0xf4, 0x93, 0xbd,
  0xaa, 0xc6, 0x25, 0xbc, 0x78, 0x13, 0xc2, 0x3d, 0x92, 0x36, 0x94, 0x3c,
  0x88, 0x35, 0x67, 0x3d, 0x2f, 0xd8, 0xe5, 0xbe, 0x92, 0xe4, 0x5f, 0xbd,
  0x95, 0x30, 0x8f, 0xbd, 0x43, 0xc7, 0x69, 0xbe, 0x12, 0xe8, 0xa6, 0xbd,
  0x61, 0xc1, 0xe1, 0xbe, 0x01, 0x1c, 0x84, 0x3d, 0xa5, 0x52, 0x7e, 0xbd,
  0x51, 0x4e, 0x2a, 0xbd, 0x86, 0x1f, 0xc6, 0xbd, 0xe8, 0x4c, 0x05, 0xbe,
  0x55, 0x86, 0xa9, 0xbc, 0xd3, 0xc2, 0xa6, 0xbc, 0x31, 0x52, 0xc0, 0xbc,
  0x88, 0x30, 0xc4, 0xbe, 0x37, 0x63, 0x86, 0x3c, 0xf9, 0x2c, 0x52, 0xbf,
  0xa4, 0xc7, 0x5d, 0x3c, 0x89, 0x61, 0xfc, 0xbd, 0x36, 0xfb, 0xc3, 0xbc,
  0x7c, 0x72, 0x28, 0xbd, 0x94, 0xc3, 0x36, 0xbc, 0x16, 0xdc, 0xec, 0x3c,
  0xc1, 0x20, 0x02, 0x3e, 0x88, 0x0c, 0xca, 0xbd, 0x11, 0x1c, 0xc3, 0x3c,
  0xab, 0x4f, 0x09, 0x3e, 0x8f, 0xed, 0x4c, 0xbe, 0x29, 0x1d, 0xd4, 0x3c,
  0x6a, 0x69, 0x2b, 0xbd, 0x28, 0xe0, 0xba, 0xbd, 0x92, 0xcd, 0xa1, 0xbd,
  0x76, 0x18, 0x05, 0x3e, 0x53, 0xb8, 0x34, 0x3e, 0x07, 0x42, 0x5d, 0xbe,
  0x41, 0x33, 0x67, 0xbd, 0xe0, 0x0a, 0x44, 0xbe, 0x58, 0x1f, 0xb0, 0x3d,
  0x17, 0xb5, 0x8f, 0x3c, 0x27, 0xa5, 0x78, 0xbe, 0xde, 0x1c, 0x5f, 0x3d,
  0x2f, 0xad, 0x19, 0xbd, 0x53, 0xeb, 0xbb, 0xba, 0xb9, 0xfb, 0x12, 0xbe,
  0x8d, 0x7d, 0x10, 0x3e, 0x27, 0xc8, 0xad, 0xbd, 0xde, 0x02, 0x60, 0xbd,
  0xb4, 0x6a, 0xe8, 0x3d, 0xa9, 0x6f, 0x9f, 0x3d, 0xeb, 0x27, 0xba, 0xbd,
  0x76, 0x53, 0x9e, 0xbd, 0x49, 0xe5, 0xf7, 0x3d, 0x7d, 0x83, 0xc4, 0xbc,
  0x3a, 0xde, 0x2f, 0x3e, 0x5a, 0x44, 0xc3, 0xbd, 0x27, 0xde, 0xce, 0xbb,
  0xfc, 0x20, 0x2c, 0x3b, 0x23, 0x35, 0x9e, 0xbd, 0x9b, 0x08, 0x8d, 0xbd,
  0x37, 0x0b, 0x3c, 0xbe, 0x2c, 0x75, 0x19, 0xbd, 0xc5, 0xb3, 0xa1, 0xbd,
  0xea, 0x08, 0x28, 0xbb, 0xae, 0x7b, 0x6d, 0xbe, 0x2f, 0x2d, 0x74, 0x3d,
  0x9a, 0x90, 0x7a, 0xbe, 0x3e, 0x8e, 0x9e, 0xbd, 0xd2, 0xfe, 0x86, 0xbe,
  0x08, 0xa8, 0x48, 0xbd, 0x21, 0x7c, 0x23, 0xbe, 0x89, 0xf4, 0x7e, 0x3d,
  0x15, 0xcf, 0x0b, 0xbe, 0x97, 0x81, 0xbe, 0x3d, 0xe4, 0x86, 0xf8, 0x3d,
  0xd4, 0x29, 0x1c, 0x3c, 0xca, 0x7b, 0x73, 0xbe, 0x5f, 0x00, 0x92, 0x3e,
  0x4a, 0x92, 0x8e, 0x3e, 0x2d, 0x73, 0x3e, 0xbe, 0x94, 0x07, 0xaf, 0xbd,
  0xcf, 0x68, 0xa3, 0x3d, 0xb2, 0x6b, 0xa5, 0xbd, 0x13, 0x42, 0xec, 0xbc,
  0x7e, 0x07, 0x95, 0xbd, 0xba, 0x62, 0x58, 0xbe, 0xe4, 0x5c, 0xca, 0xbd,
  0xeb, 0xea, 0xa3, 0xbd, 0x5d, 0x46, 0x63, 0x3e, 0x70, 0x38, 0xdd, 0x3a,
  0x6d, 0xe8, 0x32, 0x3e, 0xf8, 0x61, 0x23, 0xbd, 0x91, 0x17, 0xbf, 0xbd,
  0x90, 0x54, 0xcb, 0xbd, 0x02, 0x7c, 0x78, 0x3e, 0x35, 0xd8, 0xcf, 0xbd,
  0x07, 0xf5, 0x7f, 0xbe, 0x34, 0xbb, 0xf7, 0xbd, 0xd2, 0x48, 0xd3, 0xbc,
  0xcd, 0x55, 0xa7, 0x3d, 0xcb, 0x7c, 0x2a, 0xbd, 0xfa, 0x53, 0x03, 0x3d,
  0x30, 0xc1, 0xad, 0xbd, 0xa9, 0x46, 0x77, 0xbd, 0x0c, 0xe4, 0x11, 0xbe,
  0x37, 0xdf, 0x7d, 0xbd, 0x84, 0x2f, 0x1f, 0xbc, 0x54, 0xc0, 0xec, 0xbd,
  0x3c, 0x35, 0xf3, 0xbd, 0xec, 0xc7, 0xa5, 0xbe, 0x1c, 0x24, 0xbe, 0x3c,
  0xfe, 0x03, 0x16, 0xbe, 0x7c, 0x7f, 0x9a, 0xbe, 0xcd, 0x40, 0x51, 0xbe,
  0xf3, 0x31, 0x31, 0xbe, 0x1e, 0x79, 0x87, 0xbe, 0xa2, 0x3c, 0xca, 0xbd,
  0x34, 0xee, 0x11, 0xbe, 0xc5, 0x59, 0x88, 0xbd, 0xd1, 0xc6, 0xca, 0xbd,
  0x0c, 0x51, 0xd3, 0xbd, 0xfe, 0x2f, 0x2e, 0xbe, 0xcb, 0x7d, 0x70, 0xbe,
  0x50, 0xbe, 0xa2, 0x3d, 0x2f, 0x48, 0xa3, 0x3d, 0x3e, 0xe4, 0x85, 0xbe,
  0x86, 0x56, 0x15, 0xbe, 0x5c, 0x3f, 0x51, 0xbe, 0x65, 0x22, 0x63, 0xbe,
  0x08, 0x66, 0x95, 0x3c, 0xaa, 0x8d, 0xe5, 0xbd, 0x9d, 0x79, 0x22, 0xbc,
  0x62, 0xf1, 0xed, 0xbd, 0xec, 0xab, 0x34, 0xbe, 0x8c, 0xc1, 0x8a, 0xbc,
  0x46, 0x23, 0x80, 0x3d, 0x3e, 0xa4, 0x30, 0xbe, 0x35, 0x25, 0x7f, 0x3d,
  0xb1, 0x16, 0x21, 0xbe, 0x25, 0x6f, 0xab, 0x3d, 0xfe, 0xa2, 0xd3, 0xbd,
  0x63, 0xb5, 0x8b, 0xbe, 0xdf, 0x42, 0x10, 0xbd, 0x5b, 0xce, 0x36, 0x3e,
  0x76, 0xb0, 0x4e, 0xbe, 0xb5, 0xd5, 0x1f, 0xbe, 0x32, 0x0e, 0x26, 0x3d,
  0xa9, 0x0d, 0x7c, 0xbe, 0xbc, 0x68, 0xee, 0xbd, 0xa5, 0x92, 0x81, 0xbe,
  0x5b, 0x65, 0x3c, 0x3d, 0xa8, 0xcd, 0xf0, 0x3a, 0x23, 0x07, 0xe8, 0xbd,
  0xe8, 0x1f, 0x50, 0xbe, 0x79, 0x0e, 0xd7, 0xbd, 0x6e, 0xf0, 0xf0, 0x3d,
  0x8d, 0x1d, 0xbf, 0x3c, 0x8a, 0x67, 0xda, 0xbd, 0x05, 0xdd, 0xcb, 0xbd,
  0x1c, 0xbe, 0xff, 0xbd, 0xef, 0x2a, 0xed, 0xbd, 0x42, 0xa6, 0xcc, 0x3d,
  0x80, 0x54, 0x28, 0xbb, 0x59, 0x91, 0x41, 0xbc, 0xf9, 0x68, 0xb8, 0x3d,
  0x6d, 0xce, 0xff, 0xbd, 0x9f, 0x77, 0xfd, 0xbc, 0x95, 0xb6, 0x8f, 0x3d,
  0x4b, 0xf8, 0x2f, 0xbe, 0xca, 0x8a, 0x3f, 0xbc, 0x95, 0x43, 0x94, 0x3c,
  0xaf, 0xe0, 0x11, 0x3d, 0xce, 0x28, 0x59, 0xbe, 0xee, 0x5f, 0x21, 0x3d,
  0xbd, 0x4c, 0x14, 0x3d, 0x30, 0xb9, 0x0e, 0xbd, 0x0f, 0x9c, 0xfa, 0xbc,
  0xfd, 0x4a, 0x37, 0xbe, 0xa1, 0x79, 0xc0, 0xbc, 0x3a, 0xcf, 0x04, 0xbe,
  0x71, 0xa7, 0x09, 0xbe, 0xc7, 0x84, 0xa8, 0xbd, 0x96, 0xd2, 0x94, 0xbe,
  0x6b, 0x07, 0x6c, 0xbe, 0x26, 0xd4, 0x83, 0xbd, 0x8f, 0x96, 0xc2, 0xbc,
  0x20, 0x3c, 0x8d, 0xbd, 0x48, 0xed, 0x36, 0x3e, 0x8d, 0xb3, 0x90, 0xbe,
  0x76, 0xf2, 0x9e, 0xbc, 0xb8, 0x70, 0x30, 0x3e, 0x4b, 0x73, 0x30, 0xbe,
  0x5b, 0x56, 0x19, 0xbc, 0xae, 0x87, 0x7d, 0xbd, 0xc7, 0xce, 0xb2, 0x3d,
  0x52, 0xc3, 0x43, 0xbe, 0xf4, 0x45, 0x77, 0xbe, 0x9d, 0x06, 0xeb, 0xbd,
  0x50, 0x99, 0xb8, 0xbb, 0x1c, 0xf8, 0x84, 0x3d, 0x62, 0xdc, 0xc8, 0x3d,
  0xc9, 0x61, 0x8c, 0xbd, 0x28, 0x10, 0x0d, 0xbe, 0x33, 0xca, 0xc3, 0x3d,
  0xea, 0xab, 0x70, 0xbd, 0x02, 0xd1, 0x33, 0xbc, 0x5b, 0x85, 0xa6, 0x3d,
  0x32, 0x37, 0x58, 0x3d, 0xc2, 0x01, 0xb5, 0xbd, 0xfe, 0xd3, 0x45, 0xbe,
  0x72, 0x09, 0x6f, 0xbd, 0x3a, 0x64, 0x10, 0x3e, 0x98, 0x71, 0xd6, 0x3d,
  0x6c, 0xb1, 0xac, 0xbc, 0xde, 0xff, 0x0c, 0x3d, 0x37, 0xd3, 0xfa, 0xbd,
  0x7a, 0x04, 0x3c, 0xbe, 0xc0, 0xa5, 0xa0, 0x3d, 0xcd, 0xce, 0x8b, 0xbe,
  0x27, 0x2a, 0x2d, 0xbe, 0xc1, 0x96, 0xd6, 0xbd, 0x48, 0x92, 0xe1, 0xbc,
  0xb0, 0x15, 0x51, 0xbe, 0xb2, 0xa6, 0x18, 0x3c, 0xe1, 0x89, 0x8d, 0xbd,
  0x8d, 0xb0, 0xea, 0xbd, 0x9c, 0x7d, 0xac, 0xbc, 0xc0, 0xb2, 0x0e, 0xbe,
  0x8c, 0x04, 0x1c, 0xbe, 0x70, 0x5f, 0x88, 0xbe, 0x15, 0x11, 0x7b, 0xbe,
  0xaf, 0x7a, 0x32, 0x3c, 0xe7, 0x1b, 0x82, 0xbe, 0x75, 0x62, 0x83, 0xbe,
  0x27, 0x95, 0xe5, 0xbc, 0xe2, 0x8a, 0x07, 0xbe, 0x3b, 0x1d, 0x95, 0xbe,
  0xb0, 0x64, 0x07, 0x3d, 0x07, 0x5c, 0x78, 0xbe, 0xb9, 0x66, 0x06, 0x3e,
  0xa2, 0x28, 0x65, 0x3d, 0x58, 0x5c, 0xe1, 0x3c, 0x8b, 0xe2, 0x06, 0x3f,
  0x65, 0x02, 0x71, 0xbd, 0xef, 0x25, 0x17, 0xbd, 0x37, 0xbc, 0xab, 0xbe,
  0xb3, 0x91, 0x94, 0x3c, 0xe4, 0x88, 0xaf, 0xbd, 0x34, 0x80, 0xbf, 0x3b,
  0xc5, 0x4a, 0x17, 0xbe, 0x9e, 0xf3, 0x8a, 0xbd, 0x42, 0x1d, 0xd4, 0x3d,
  0x1e, 0x42, 0x89, 0xbd, 0xfc, 0x37, 0xe8, 0xbd, 0xc9, 0x2c, 0xf0, 0xbd,
  0x03, 0x0e, 0x08, 0x3e, 0x72, 0x73, 0x44, 0xbe, 0x61, 0x81, 0x10, 0xbe,
  0x69, 0x6d, 0x29, 0x3f, 0xc4, 0x80, 0xf1, 0xbc, 0xde, 0x9b, 0x52, 0xbd,
  0xca, 0xee, 0xc5, 0xbd, 0x18, 0x0a, 0x9c, 0xbc, 0x8e, 0xd0, 0x46, 0xbe,
  0x9f, 0x21, 0x0d, 0xbe, 0x4e, 0x96, 0x66, 0xbd, 0x27, 0xdd, 0xd2, 0xbb,
  0x67, 0x6b, 0x78, 0x3d, 0xca, 0xd9, 0x18, 0xbe, 0x1c, 0xd0, 0x64, 0x3d,
  0xcf, 0xcb, 0x5f, 0xbe, 0xca, 0x8a, 0x1c, 0xbd, 0x08, 0xe1, 0xd7, 0x3d,
  0x69, 0x3b, 0x3c, 0xbd, 0x7b, 0x10, 0x0b, 0x3e, 0x7e, 0x87, 0x65, 0xbe,
  0x6e, 0x41, 0x87, 0x3e, 0x36, 0xd6, 0x75, 0xbe, 0xb0, 0x28, 0x05, 0xbe,
  0x7b, 0x6f, 0x8b, 0xbd, 0x05, 0x8a, 0x15, 0xbd, 0xb0, 0xb1, 0x03, 0xbe,
  0xad, 0x45, 0x8f, 0xbe, 0x83, 0x35, 0x3b, 0x3e, 0x7e, 0x94, 0x59, 0xbd,
  0x01, 0xb7, 0x80, 0xbe, 0x0f, 0x93, 0x22, 0xbe, 0x43, 0x51, 0x21, 0xbd,
  0x41, 0x72, 0x46, 0xbe, 0x6d, 0x05, 0x80, 0xbb, 0x45, 0xcb, 0xe1, 0x3e,
  0xef, 0xcf, 0xd1, 0xbd, 0x70, 0x2a, 0xf4, 0x3d, 0x59, 0x9e, 0x96, 0xbe,
  0x1c, 0xc2, 0xe2, 0xbd, 0xaa, 0x9b, 0xb9, 0x3d, 0xcf, 0x1b, 0x36, 0xbc,
  0x55, 0xf8, 0x90, 0xbe, 0x3a, 0x87, 0xef, 0x3d, 0x86, 0x1b, 0x3c, 0x3e,
  0x19, 0xc9, 0x85, 0xbe, 0x6b, 0x5b, 0x1e, 0xbe, 0xef, 0x1e, 0x5c, 0x3d,
  0xde, 0x8c, 0xc3, 0x3d, 0xd6, 0x3b, 0x32, 0xbe, 0x56, 0x9b, 0x9f, 0xbd,
  0x27, 0x69, 0xbe, 0x3e, 0x31, 0x90, 0xa5, 0xbc, 0x26, 0x62, 0x0d, 0x3e,
  0x3a, 0x5d, 0x3e, 0x3d, 0x4d, 0x93, 0x92, 0xbd, 0xb1, 0x2f, 0x49, 0xbe,
  0xa5, 0x97, 0x91, 0xbe, 0x67, 0xe6, 0xf0, 0xbc, 0x15, 0x5f, 0xf0, 0xbd,
  0xc2, 0xf7, 0x38, 0xbe, 0x0c, 0xc5, 0x5b, 0xbd, 0xf6, 0xfa, 0x2a, 0xbe,
  0x74, 0x50, 0xc2, 0x3d, 0x47, 0x07, 0x65, 0x3d, 0x47, 0xa6, 0xc2, 0x3c,
  0xdf, 0x00, 0x67, 0xbe, 0x67, 0x3f, 0x5d, 0x3f, 0xf6, 0x50, 0x48, 0xbc,
  0x16, 0x13, 0x5a, 0x3d, 0xda, 0x9d, 0x9d, 0xbe, 0x50, 0xda, 0x5f, 0x3b,
  0xc0, 0x2e, 0x09, 0xbe, 0x94, 0xa3, 0x0f, 0xbe, 0x7b, 0x49, 0x8f, 0xbd,
  0xac, 0x62, 0xa4, 0x3b, 0x12, 0xb1, 0xd2, 0x3d, 0xf9, 0x80, 0x0c, 0xbe,
  0x97, 0x87, 0x4e, 0xbe, 0xa6, 0xfd, 0x22, 0xbe, 0x60, 0x28, 0x84, 0xbe,
  0xce, 0x39, 0x7a, 0xbe, 0x3b, 0x8b, 0x91, 0xbd, 0xd4, 0xa2, 0x75, 0x3d,
  0x60, 0x7e, 0xaa, 0xb8, 0x99, 0xfb, 0xc3, 0x3c, 0xa9, 0x2d, 0x03, 0xbe,
  0xdb, 0x7a, 0x10, 0xbd, 0x4d, 0x44, 0x3d, 0xbe, 0x96, 0x4f, 0x87, 0xbe,
  0xc1, 0xc5, 0xf4, 0xba, 0x4e, 0x91, 0x33, 0xbe, 0xe3, 0x12, 0xd2, 0x3d,
  0x7d, 0xd6, 0x4b, 0xbc, 0x4b, 0x66, 0xbb, 0xbd, 0x1a, 0x3d, 0xd2, 0xbd,
  0xcd, 0x3c, 0xf6, 0x3d, 0x0e, 0x84, 0xa3, 0xbe, 0x21, 0x28, 0x87, 0xbd,
  0x76, 0x18, 0xb6, 0x3e, 0xab, 0xbe, 0x2e, 0x3e, 0x01, 0xbd, 0x81, 0x3e,
  0x9c, 0xcc, 0xa3, 0xbe, 0xe4, 0x73, 0x82, 0x3e, 0x22, 0x7b, 0x49, 0xbc,
  0x40, 0x27, 0x0f, 0x3e, 0x58, 0xb3, 0x3a, 0xbd, 0x35, 0x8f, 0xaf, 0xbc,
  0x37, 0x65, 0x95, 0x3e, 0xb7, 0xd0, 0x80, 0xbe, 0x0a, 0x9d, 0x38, 0xbe,
  0x95, 0x13, 0x3c, 0x3e, 0x39, 0xfc, 0xbe, 0xbd, 0xe4, 0xcd, 0x43, 0xbe,
  0x52, 0xc4, 0xcf, 0x3e, 0x22, 0xfa, 0xa7, 0x3e, 0x28, 0x61, 0x02, 0xbe,
  0x9b, 0x3a, 0x21, 0x3e, 0x40, 0x72, 0x7b, 0xbd, 0xaa, 0x97, 0x2a, 0x3e,
  0x87, 0xcc, 0xce, 0x3c, 0x5b, 0x35, 0x97, 0x3d, 0x22, 0x5f, 0x14, 0x3e,
  0xbe, 0xd2, 0xad, 0x3d, 0x12, 0x60, 0x6e, 0x3e, 0x90, 0xfc, 0x68, 0xbe,
  0x5a, 0xc2, 0xe8, 0xbb, 0x30, 0xc5, 0x01, 0xbe, 0x90, 0x0c, 0x4a, 0xbc,
  0xdd, 0xc5, 0xc0, 0x3d, 0x66, 0xea, 0xcd, 0x3e, 0x8c, 0xa4, 0x83, 0x3e,
  0xad, 0x90, 0xc4, 0xbc, 0x9a, 0x22, 0xf5, 0x3a, 0x19, 0xe4, 0x71, 0x3e,
  0x65, 0x16, 0x01, 0x3d, 0x84, 0xfd, 0x6d, 0xbc, 0xee, 0x41, 0x00, 0x3e,
  0xaf, 0x1a, 0x1e, 0x3d, 0xad, 0x9f, 0xaf, 0xbd, 0x51, 0x5f, 0xf1, 0x3e,
  0x04, 0x86, 0x38, 0xbe, 0xb8, 0xd6, 0x75, 0xbe, 0xbb, 0xe8, 0x2b, 0xbc,
  0x91, 0x77, 0xa0, 0x3e, 0xa7, 0x99, 0x69, 0xbe, 0x9a, 0xc5, 0x4f, 0x3e,
  0x6b, 0xa8, 0x19, 0x3e, 0xd2, 0x14, 0x65, 0x3e, 0x02, 0x53, 0x88, 0x3e,
  0xb4, 0x7f, 0xbb, 0xbd, 0x3a, 0x64, 0xc8, 0x3c, 0x16, 0x3a, 0x22, 0xbe,
  0x19, 0x72, 0x28, 0xbd, 0x78, 0x09, 0x13, 0xbe, 0xbb, 0x6d, 0x9a, 0xbe,
  0x9b, 0xb7, 0xb7, 0x3d, 0xf6, 0x90, 0x43, 0xbe, 0xfc, 0x97, 0x6c, 0xbe,
  0xa4, 0xdb, 0x9b, 0xbd, 0x46, 0x62, 0x78, 0x3e, 0x9b, 0x12, 0x02, 0xbe,
  0x86, 0xaa, 0x31, 0x3e, 0x0d, 0xa0, 0x2a, 0x3d, 0xb0, 0xa3, 0x71, 0xba,
  0xf5, 0xe0, 0x9c, 0x3e, 0xe7, 0x1f, 0x5b, 0x3e, 0xab, 0x88, 0x20, 0xbc,
  0x56, 0xb0, 0x9b, 0xbd, 0x5d, 0xb6, 0x44, 0xbb, 0x57, 0xe4, 0xe3, 0x3d,
  0x4a, 0x71, 0x5f, 0xbe, 0x74, 0x9c, 0x99, 0x3d, 0x92, 0x57, 0x8b, 0xbe,
  0x58, 0x50, 0x1f, 0xbe, 0x87, 0x43, 0xcf, 0xbd, 0x95, 0x7c, 0x39, 0x3d,
  0x5c, 0xbc, 0xef, 0xbd, 0x52, 0xfe, 0x17, 0x3e, 0x86, 0x19, 0xfe, 0x3d,
  0xc4, 0xb4, 0x5c, 0x3e, 0x77, 0x29, 0xaa, 0x3e, 0x0e, 0xab, 0x4e, 0x3d,
  0x0a, 0x59, 0x96, 0x3e, 0xbc, 0xd8, 0x96, 0xbe, 0x94, 0x11, 0xda, 0xbd,
  0x5a, 0xee, 0x94, 0x3d, 0xca, 0x8d, 0x14, 0xbe, 0xe8, 0x38, 0xa3, 0x3e,
  0x15, 0xcf, 0xc9, 0xbe, 0xc6, 0x78, 0xda, 0xbd, 0x80, 0x1a, 0xc5, 0x3d,
  0x6a, 0x71, 0x82, 0x3e, 0xdc, 0x19, 0xc9, 0xbd, 0xf5, 0x52, 0x9a, 0x3e,
  0xbe, 0x04, 0x9c, 0xbd, 0xa5, 0x9e, 0x85, 0xbe, 0xe1, 0x23, 0xa0, 0x3e,
  0x3a, 0x1b, 0x38, 0xbd, 0xce, 0xef, 0x07, 0x3f, 0x65, 0x49, 0x57, 0xbd,
  0x58, 0xd4, 0x76, 0xbe, 0x13, 0x2c, 0x32, 0xbe, 0xa2, 0x72, 0x7e, 0xbd,
  0xff, 0x0e, 0x82, 0xbd, 0xd7, 0xa4, 0xbd, 0xbe, 0x72, 0x64, 0xdc, 0x3d,
  0xa2, 0x67, 0xb7, 0xbc, 0xff, 0xf2, 0x4e, 0x3e, 0x65, 0x2c, 0x00, 0x3d,
  0xee, 0xed, 0x9b, 0x3e, 0x29, 0x00, 0xad, 0x3d, 0xb2, 0xb5, 0xf0, 0xbd,
  0x70, 0x75, 0x74, 0xbd, 0xa5, 0x17, 0x96, 0xbd, 0x4a, 0x53, 0x3e, 0x3e,
  0x8f, 0xc5, 0x81, 0x3e, 0xe9, 0x88, 0x91, 0x3e, 0x03, 0xf1, 0x02, 0xbd,
  0x3d, 0xae, 0x6b, 0x3e, 0xea, 0x23, 0xa9, 0xbc, 0x70, 0x01, 0xc2, 0xbe,
  0x0d, 0x5c, 0x0c, 0x3e, 0x6f, 0x23, 0xd3, 0x3e, 0x9b, 0x72, 0xeb, 0xbd,
  0x80, 0xfe, 0x3e, 0x3e, 0xe5, 0x6d, 0x81, 0x3c, 0x99, 0x86, 0xa9, 0xbd,
  0x81, 0x35, 0x27, 0xbe, 0xe3, 0x71, 0x51, 0xbb, 0xbd, 0xf4, 0xa2, 0xb9,
  0xd9, 0x0e, 0x51, 0xbd, 0x3a, 0x9c, 0xdb, 0x3d, 0x60, 0x16, 0x40, 0xbd,
  0x26, 0xf8, 0xd8, 0xbc, 0x1a, 0x86, 0x7d, 0x3e, 0xdc, 0xd4, 0x15, 0xbe,
  0x87, 0x0e, 0x96, 0xbe, 0x81, 0xfd, 0x4a, 0xbc, 0x54, 0xed, 0x08, 0x3e,
  0xfd, 0x59, 0x03, 0xbe, 0x29, 0x55, 0x15, 0xbe, 0x41, 0xe7, 0x34, 0x3d,
  0x75, 0xea, 0x13, 0x3d, 0x59, 0xd6, 0x66, 0xbd, 0x1f, 0x07, 0x08, 0xbe,
  0xf2, 0x18, 0x6a, 0x3c, 0x44, 0x69, 0x90, 0x3d, 0xb4, 0x0f, 0xa2, 0x3d,
  0xd6, 0xf7, 0xfe, 0xbc, 0xaf, 0x13, 0x97, 0xbd, 0xe0, 0x98, 0xd6, 0xbd,
  0xb7, 0x59, 0x47, 0xbe, 0xfa, 0x9c, 0x25, 0xbe, 0x63, 0xd0, 0x0f, 0xbd,
  0x09, 0x77, 0xd9, 0x3d, 0xd5, 0x0f, 0x04, 0xbe, 0xbc, 0x0a, 0xfc, 0xbc,
  0x59, 0x8d, 0xf6, 0xbc, 0x76, 0x66, 0x81, 0xbd, 0x3a, 0x56, 0x4e, 0xbd,
  0x65, 0xc6, 0x23, 0xbe, 0x0b, 0x1b, 0x9e, 0xbd, 0x53, 0xf0, 0xfa, 0x3c,
  0xb6, 0xee, 0x6d, 0xbc, 0xc2, 0x4a, 0x23, 0xbe, 0x42, 0x86, 0xef, 0x3b,
  0xac, 0x09, 0x27, 0xbe, 0xd9, 0x1d, 0xab, 0xbd, 0x47, 0x8a, 0xe0, 0x3d,
  0x3e, 0x1a, 0x33, 0x3d, 0x41, 0xf8, 0x36, 0x3e, 0xf0, 0xc5, 0x91, 0xbc,
  0xd7, 0xbb, 0x36, 0x3e, 0x5c, 0x03, 0xea, 0xbd, 0x94, 0x17, 0xb1, 0xbc,
  0x93, 0x8d, 0xe9, 0xbd, 0x76, 0xe3, 0xcc, 0x3c, 0xe2, 0xf4, 0xac, 0xbd,
  0x0c, 0x37, 0xc9, 0xbd, 0x4d, 0x4b, 0x96, 0x3e, 0x71, 0x9f, 0x90, 0xbc,
  0x89, 0xb4, 0xab, 0x3d, 0x40, 0x82, 0x0d, 0x3c, 0x3c, 0x82, 0xe3, 0xbd,
  0x17, 0x7a, 0xbf, 0x3b, 0xe8, 0x4a, 0x61, 0x3d, 0xd4, 0x0d, 0x64, 0x3d,
  0x15, 0x21, 0x80, 0xbd, 0xd8, 0xfa, 0x85, 0x3e, 0x4f, 0xcf, 0x82, 0xbe,
  0x34, 0x3c, 0xdc, 0x3c, 0x80, 0x41, 0xdb, 0xbc, 0x08, 0x6b, 0x90, 0xbe,
  0xbe, 0x60, 0xd3, 0xbc, 0x14, 0xb3, 0xd9, 0xbe, 0xe2, 0xcb, 0x88, 0x3e,
  0xb0, 0x05, 0x99, 0x3d, 0x73, 0xed, 0x93, 0xbe, 0xd1, 0x47, 0x41, 0x3d,
  0xa5, 0xc3, 0x8b, 0xbe, 0xf8, 0x18, 0x1c, 0xbc, 0x56, 0x63, 0xae, 0xbd,
  0x7d, 0x89, 0xaa, 0x3e, 0x5e, 0x57, 0xae, 0xbe, 0x14, 0x32, 0x80, 0x3d,
  0x28, 0x22, 0x6b, 0xbe, 0x86, 0x77, 0xc4, 0xbe, 0x3e, 0x93, 0x0c, 0xbe,
  0xb6, 0xb7, 0x42, 0xbf, 0x1b, 0x9a, 0xd3, 0xbe, 0xa5, 0x14, 0x10, 0xbf,
  0x78, 0x95, 0xb1, 0xbe, 0x96, 0x22, 0x51, 0xbe, 0xb7, 0x6c, 0x92, 0xbe,
  0xa7, 0xc3, 0x9c, 0xbe, 0x85, 0x2f, 0xbb, 0xbe, 0x97, 0x69, 0x6c, 0x3d,
  0x99, 0xfb, 0xa6, 0xbe, 0xf9, 0xed, 0x43, 0xbe, 0x12, 0x72, 0xc1, 0xbd,
  0x18, 0x1e, 0x7a, 0xbe, 0x97, 0xdc, 0x07, 0xbf, 0xbc, 0x49, 0x93, 0xbe,
  0x1b, 0xa1, 0x13, 0xbe, 0x4f, 0xd2, 0x84, 0x3e, 0x2a, 0xf6, 0x61, 0x3e,
  0x20, 0xa3, 0x91, 0x3d, 0x95, 0xb0, 0x4d, 0x3e, 0x94, 0x4d, 0xfa, 0xbe,
  0x25, 0x1d, 0x48, 0x3d, 0xa0, 0xeb, 0x78, 0xbe, 0x5d, 0xa3, 0x10, 0x3e,
  0xfc, 0x43, 0x00, 0xbd, 0x03, 0x58, 0x8b, 0xbd, 0x84, 0x1d, 0xa3, 0xbe,
  0x04, 0xe9, 0x84, 0xbe, 0x3d, 0xb0, 0x01, 0xbe, 0x3a, 0x0b, 0x8e, 0x3e,
  0xc7, 0xf6, 0xa9, 0xbe, 0x53, 0xcd, 0x0b, 0xbd, 0x12, 0x9f, 0xd1, 0x3d,
  0x0b, 0x4e, 0x77, 0x3e, 0x2d, 0x64, 0xcb, 0x3d, 0xc4, 0x1b, 0x36, 0x3e,
  0xbf, 0x99, 0xec, 0xbe, 0x95, 0xb6, 0xb5, 0x3d, 0x14, 0xae, 0x90, 0xbe,
  0x72, 0x0e, 0x38, 0x3e, 0x37, 0x6f, 0x79, 0x3d, 0x7a, 0xf6, 0xca, 0xbd,
  0xa5, 0xd5, 0x9b, 0xbe, 0x92, 0x9f, 0x0f, 0xbd, 0x63, 0xc7, 0xb6, 0xbd,
  0xda, 0xa8, 0xec, 0x3d, 0xe4, 0x5b, 0x34, 0xbd, 0x2a, 0x02, 0x5b, 0xbe,
  0x72, 0xa7, 0x32, 0x3e, 0x5c, 0xb6, 0x4a, 0x3e, 0xfa, 0x82, 0xe8, 0x3d,
  0x47, 0xc1, 0x00, 0xbd, 0xbe, 0x75, 0x7f, 0xbd, 0x55, 0x51, 0x48, 0xba,
  0x40, 0x94, 0x47, 0xbe, 0x8f, 0x53, 0x2c, 0x3e, 0x7e, 0xe2, 0x3a, 0x3c,
  0xd3, 0x19, 0xd2, 0x3d, 0x5b, 0x97, 0x10, 0x3d, 0xa2, 0xc3, 0x9a, 0x39,
  0x70, 0x91, 0xf6, 0xbd, 0x40, 0x8c, 0xed, 0xbc, 0xd1, 0x30, 0x53, 0xbd,
  0x99, 0x47, 0x36, 0xbe, 0xb8, 0x01, 0xa7, 0x3d, 0xc4, 0x54, 0x55, 0x3e,
  0xb2, 0xca, 0xb3, 0x3c, 0xba, 0x62, 0x19, 0x3d, 0xdb, 0x6f, 0x78, 0xbe,
  0x88, 0xf0, 0x46, 0x3d, 0x6b, 0x89, 0xba, 0x3d, 0x29, 0xea, 0x36, 0xbd,
  0xf7, 0x2b, 0x9c, 0x3c, 0x9e, 0x83, 0x3e, 0xbe, 0x61, 0x6c, 0x0c, 0x3e,
  0x56, 0xdc, 0x39, 0x3e, 0x94, 0xc6, 0xa6, 0xbe, 0xfc, 0x1b, 0xea, 0x3d,
  0x41, 0xd9, 0xed, 0x3b, 0x23, 0x92, 0xa8, 0xbe, 0xe9, 0xe5, 0x81, 0x3d,
  0xff, 0x16, 0x44, 0xbd, 0xff, 0x04, 0xe5, 0x3d, 0xcd, 0xef, 0xdb, 0xbd,
  0x5a, 0x08, 0x8b, 0xbe, 0xf2, 0x61, 0xd4, 0x3b, 0x0f, 0x98, 0x1d, 0xbe,
  0x70, 0x6e, 0xe6, 0xbd, 0xa6, 0x03, 0x93, 0x3d, 0x51, 0x31, 0xfd, 0xbb,
  0xdc, 0xca, 0x03, 0xbe, 0xdd, 0xfd, 0xff, 0x3d, 0x14, 0xa8, 0x15, 0xbe,
  0xe8, 0x37, 0x02, 0xbd, 0xd6, 0x63, 0xfa, 0xbd, 0x10, 0x52, 0xd7, 0xbe,
  0x10, 0x9a, 0x46, 0x3e, 0x8d, 0x97, 0x08, 0x3e, 0x90, 0x61, 0x0d, 0x3e,
  0xad, 0xa1, 0x5a, 0x3c, 0x34, 0xbd, 0xb6, 0xbe, 0x32, 0x00, 0x11, 0x3e,
  0x7f, 0x1d, 0xb1, 0xbe, 0xc6, 0x6d, 0x44, 0x3e, 0x90, 0xe1, 0x3f, 0x3d,
  0x8e, 0x2f, 0xd9, 0xbd, 0x76, 0x4d, 0x45, 0x3b, 0x67, 0xec, 0x0f, 0x3e,
  0x12, 0x6b, 0xd8, 0xbe, 0xef, 0x36, 0x99, 0x3d, 0xe7, 0x0e, 0xdc, 0x3e,
  0x3c, 0xfc, 0xff, 0xbe, 0x1d, 0x04, 0x84, 0x3e, 0xc3, 0x25, 0x34, 0xbe,
  0xcb, 0xdc, 0x99, 0x3e, 0xfd, 0x45, 0x10, 0x3c, 0x9f, 0x47, 0x50, 0xbf,
  0xd5, 0x87, 0xa6, 0x3d, 0x31, 0x77, 0xb7, 0xbe, 0xd1, 0x20, 0x86, 0xbd,
  0x7c, 0x6f, 0xad, 0xbd, 0xab, 0xb9, 0x44, 0xbe, 0x83, 0x72, 0x70, 0xbe,
  0xa3, 0x27, 0x85, 0x3d, 0xc3, 0x0e, 0x00, 0xbf, 0xa4, 0x94, 0x59, 0x3e,
  0xa4, 0x30, 0xd1, 0x3d, 0x2d, 0xe1, 0x4b, 0xbd, 0xcb, 0x56, 0x78, 0xbe,
  0x66, 0xc9, 0x0a, 0xbe, 0x23, 0xfc, 0xe6, 0xba, 0x51, 0xe7, 0x92, 0xbd,
  0xca, 0x58, 0x11, 0xbe, 0xf6, 0x05, 0xbc, 0xbc, 0xb8, 0xda, 0x0f, 0xbd,
  0x86, 0x02, 0x9f, 0x3d, 0x39, 0x50, 0x0d, 0xbe, 0xf3, 0x06, 0x44, 0xbe,
  0x15, 0xe9, 0x02, 0xbc, 0x66, 0x33, 0xb3, 0x3d, 0x13, 0x85, 0x65, 0xbe,
  0x3c, 0x6c, 0xac, 0x3d, 0xf2, 0xc7, 0x92, 0xbd, 0x49, 0x05, 0x0d, 0xbd,
  0xbd, 0x2c, 0x97, 0xbc, 0x91, 0x44, 0x86, 0xbe, 0x8e, 0x3c, 0x39, 0xbd,
  0x16, 0x97, 0x2d, 0x3d, 0x3b, 0xfd, 0x63, 0xbe, 0x60, 0x8d, 0xe6, 0xbd,
  0xa4, 0xb7, 0x80, 0xbe, 0xa6, 0xde, 0xe8, 0x3d, 0x65, 0x68, 0x88, 0xbe,
  0x76, 0xdf, 0x26, 0xbe, 0xb4, 0x20, 0x3a, 0x3d, 0x7d, 0xd1, 0x24, 0x3e,
  0x7b, 0xff, 0x1a, 0xbe, 0xba, 0x77, 0x5f, 0xbe, 0x98, 0x23, 0xb4, 0x3d,
  0x36, 0xe4, 0xd8, 0xbd, 0xb8, 0x76, 0xc2, 0xbd, 0x3f, 0x93, 0x70, 0xbe,
  0x63, 0xd3, 0x86, 0x3c, 0x99, 0x26, 0xc6, 0xbd, 0x6c, 0x24, 0x4c, 0x3e,
  0x0a, 0xd5, 0x31, 0xbe, 0x6c, 0x97, 0x98, 0x3d, 0xe2, 0x32, 0xa9, 0xbd,
  0x48, 0x16, 0x65, 0xbe, 0x1d, 0x48, 0xdc, 0xbd, 0x77, 0x37, 0x8e, 0x3d,
  0xf9, 0x10, 0x29, 0xbe, 0xa4, 0x02, 0x3b, 0x3d, 0x19, 0x97, 0x17, 0xbe,
  0xf4, 0xf6, 0x5a, 0xbe, 0xd6, 0x1f, 0x52, 0x3d, 0xc8, 0x15, 0x01, 0x3e,
  0x03, 0xbf, 0x64, 0xbe, 0x1e, 0xaa, 0x08, 0x3e, 0x28, 0x19, 0x94, 0xbd,
  0xa4, 0x77, 0xce, 0x3c, 0xae, 0x7a, 0x26, 0xbe, 0x23, 0x07, 0x35, 0xbe,
  0x68, 0x0a, 0x14, 0xbe, 0xc0, 0xc4, 0x18, 0x3c, 0x3e, 0xb9, 0x4f, 0xbe,
  0xab, 0x20, 0xf5, 0xbc, 0x7c, 0x7e, 0x5a, 0x3d, 0x11, 0xac, 0x54, 0xbe,
  0x25, 0x19, 0xa9, 0x3d, 0xdf, 0x42, 0x1c, 0x3d, 0xbc, 0xf8, 0x90, 0xbd,
  0xb5, 0x80, 0x7d, 0xbe, 0x90, 0xe7, 0x97, 0xbd, 0x35, 0x04, 0xa0, 0x3d,
  0x14, 0xe4, 0xf6, 0x3c, 0x44, 0x6b, 0x07, 0x3e, 0xa1, 0x80, 0xf8, 0x3d,
  0xa3, 0x7a, 0xa4, 0xbd, 0xc6, 0xa5, 0xae, 0x3d, 0x9f, 0x22, 0x17, 0xbe,
  0xde, 0x08, 0x6b, 0xbe, 0xb7, 0xa6, 0x13, 0xbd, 0x3d, 0x7f, 0x35, 0x3e,
  0x2a, 0x99, 0x3a, 0xbe, 0x08, 0x8e, 0xac, 0x3d, 0xa9, 0xd9, 0x1d, 0xbb,
  0x20, 0xd8, 0x81, 0xbe, 0x43, 0x7c, 0x05, 0xbd, 0x05, 0xaa, 0xe1, 0xbb,
  0xe1, 0x3d, 0x3a, 0xbe, 0x82, 0xae, 0xd3, 0x3d, 0xc8, 0xaa, 0x34, 0xbe,
  0x28, 0x2a, 0x27, 0xbe, 0xc2, 0x21, 0x0f, 0x3d, 0x68, 0xe0, 0x5c, 0xbe,
  0x81, 0x70, 0xfa, 0xbd, 0xc7, 0x55, 0xa0, 0x3d, 0x78, 0xe8, 0x09, 0xbe,
  0xc2, 0x1b, 0xc8, 0x3d, 0x82, 0xb0, 0x01, 0xbe, 0x3a, 0x05, 0x49, 0xbd,
  0x29, 0xbe, 0xed, 0xbd, 0x2c, 0x68, 0x4b, 0xbe, 0x0f, 0x32, 0x15, 0xbd,
  0x2a, 0x6a, 0xe7, 0xbd, 0xb0, 0xd1, 0xb7, 0x3c, 0xc7, 0x99, 0x20, 0x3d,
  0x8e, 0x66, 0xa7, 0xbe, 0x1f, 0xaf, 0xb6, 0x3b, 0x14, 0x4d, 0x62, 0xbe,
  0x57, 0x57, 0x41, 0x3e, 0x75, 0x9b, 0x8a, 0xbe, 0x7e, 0x3b, 0xc7, 0xbd,
  0x8d, 0x79, 0x83, 0xbb, 0x22, 0x3d, 0x4f, 0xbe, 0xf3, 0x01, 0x8d, 0xbc,
  0x85, 0x03, 0x3c, 0x3e, 0xab, 0xe8, 0x12, 0x3e, 0xa7, 0xa1, 0xe4, 0xbd,
  0xd2, 0x22, 0xcd, 0x3d, 0x18, 0x83, 0x76, 0xbc, 0x58, 0x64, 0x0a, 0x3e,
  0x9e, 0x40, 0xbb, 0x3e, 0x7d, 0xba, 0x72, 0x3e, 0x5c, 0x85, 0x89, 0xbc,
  0xb7, 0x4c, 0x3d, 0xbc, 0x70, 0xff, 0xef, 0x3d, 0x90, 0xed, 0xfb, 0xbe,
  0x3a, 0x92, 0x69, 0x3e, 0xd9, 0xc7, 0x82, 0x3e, 0x47, 0x76, 0x40, 0xbe,
  0xea, 0xd5, 0x48, 0x3e, 0x48, 0xb3, 0x2f, 0xbd, 0xee, 0xd6, 0x8e, 0xbd,
  0x31, 0xf0, 0x75, 0xbe, 0x15, 0xd5, 0xcd, 0xbc, 0x30, 0xb6, 0xd0, 0xbc,
  0x2c, 0xfc, 0x09, 0xbe, 0x25, 0xf0, 0xb1, 0xbc, 0xea, 0x34, 0x9d, 0xbc,
  0x6a, 0x59, 0x65, 0x3c, 0x96, 0x71, 0xd8, 0x3d, 0xa5, 0x55, 0xd3, 0xbd,
  0x04, 0xde, 0xd7, 0xbe, 0xda, 0xf7, 0x4d, 0x3c, 0x8a, 0x5d, 0x1c, 0x3e,
  0xbb, 0x1d, 0xad, 0xbe, 0xba, 0x4f, 0x32, 0xbe, 0x43, 0x03, 0x40, 0xbe,
  0xec, 0x1a, 0x7f, 0x3d, 0x56, 0xbe, 0x76, 0xbd, 0x37, 0x1a, 0x62, 0xbe,
  0x3e, 0x02, 0xa2, 0xbd, 0xd8, 0x5c, 0x6f, 0xbe, 0x05, 0x80, 0x77, 0xbe,
  0xb2, 0x10, 0x96, 0xbd, 0x2f, 0xb6, 0x6f, 0xbd, 0x46, 0xe9, 0x4c, 0xbd,
  0x20, 0xbd, 0xa9, 0xbe, 0x63, 0x63, 0x41, 0xbd, 0x5c, 0x46, 0x85, 0xbd,
  0x88, 0xf8, 0x0d, 0x3b, 0x46, 0x05, 0x5e, 0xbe, 0xe6, 0x3a, 0x31, 0xbd,
  0x45, 0x94, 0xfc, 0xbd, 0xde, 0x59, 0x00, 0xbe, 0xb4, 0x26, 0x00, 0xbe,
  0x9c, 0xf2, 0x77, 0x3a, 0xfa, 0x1c, 0xcc, 0xbd, 0x86, 0x49, 0x3d, 0xbe,
  0xb9, 0xf0, 0xca, 0xbd, 0xcc, 0x00, 0x31, 0xbd, 0x12, 0x82, 0x83, 0xbd,
  0xa9, 0x37, 0x97, 0xbd, 0x6c, 0x7b, 0xd0, 0xbd, 0xb0, 0xbc, 0xf2, 0x3d,
  0x1d, 0xfa, 0xbf, 0x3c, 0xfc, 0x54, 0x13, 0x3e, 0xb5, 0x9b, 0x98, 0x3d,
  0x42, 0x2d, 0x01, 0x3c, 0xfc, 0x0c, 0x6e, 0xbe, 0x2d, 0x8d, 0xa0, 0xbd,
  0xa1, 0x2c, 0x3a, 0xbe, 0x7d, 0xb1, 0x38, 0x3c, 0xe8, 0xe5, 0x28, 0xbe,
  0x38, 0x23, 0xd9, 0xbe, 0x71, 0x48, 0x99, 0x3d, 0x87, 0x94, 0x9a, 0x3d,
  0xb3, 0x11, 0x74, 0xbd, 0x0e, 0x3a, 0xb2, 0xbd, 0x4b, 0xf2, 0x82, 0xbe,
  0x05, 0xe8, 0xa2, 0x3d, 0xf2, 0x99, 0xdd, 0x3c, 0xfd, 0x31, 0xa9, 0x3e,
  0xd9, 0x16, 0x85, 0xbd, 0x94, 0x9f, 0x53, 0x3d, 0x0e, 0x80, 0x10, 0xbf,
  0x67, 0xa5, 0xb4, 0xbe, 0x23, 0x13, 0x94, 0xbb, 0x77, 0xd1, 0xaa, 0xbe,
  0x28, 0xf1, 0x5e, 0xbe, 0x0f, 0x19, 0x9d, 0xbe, 0x8e, 0x96, 0xf5, 0xbd,
  0x8a, 0xeb, 0x6c, 0x3d, 0x28, 0xf6, 0x97, 0xbe, 0xe0, 0x61, 0x93, 0xbe,
  0x1b, 0xd1, 0x08, 0xbe, 0x41, 0xfa, 0x85, 0xbd, 0xaa, 0x64, 0x5e, 0xbe,
  0xad, 0x16, 0x89, 0x3e, 0x89, 0x6a, 0xd4, 0xb9, 0x02, 0x4c, 0x18, 0x3e,
  0x49, 0xe1, 0xb6, 0xbe, 0x2f, 0x63, 0x91, 0xbe, 0xbe, 0x35, 0x2f, 0xbe,
  0x1c, 0x83, 0x01, 0xbf, 0xc1, 0xaf, 0xfe, 0xbe, 0x98, 0x05, 0x7e, 0xbe,
  0x18, 0x2b, 0x2e, 0xbe, 0x1a, 0x1d, 0x49, 0xbe, 0xeb, 0xf8, 0xd4, 0xbd,
  0x1f, 0xb4, 0x8c, 0xbe, 0x14, 0x56, 0x62, 0xbe, 0xa2, 0x67, 0x2f, 0x3d,
  0x95, 0x99, 0x84, 0xbe, 0xb5, 0x17, 0x00, 0xbe, 0x73, 0x10, 0xa3, 0xbd,
  0xcf, 0xb6, 0x75, 0xbe, 0x90, 0xc5, 0xc2, 0xbe, 0xa6, 0xd2, 0x26, 0xbe,
  0xd5, 0x50, 0x94, 0xbd, 0x8c, 0x4f, 0xd6, 0xbd, 0xc1, 0x6e, 0x7a, 0xbe,
  0x50, 0xdf, 0xcc, 0x3b, 0x07, 0xee, 0x42, 0xbe, 0x39, 0x95, 0x19, 0x3b,
  0x1e, 0xb7, 0xa1, 0xbe, 0x74, 0x97, 0xbd, 0xbd, 0x6f, 0x45, 0x21, 0x3e,
  0x19, 0x8f, 0x96, 0xbe, 0x94, 0x10, 0xd1, 0xbd, 0x78, 0x11, 0xcc, 0x3d,
  0x7f, 0x73, 0x54, 0x3e, 0x77, 0x74, 0x1a, 0xbe, 0xa9, 0x4b, 0x7a, 0xbe,
  0xfa, 0x36, 0x43, 0xbe, 0x5a, 0x4c, 0x18, 0x3e, 0x15, 0x48, 0x35, 0xbe,
  0xe7, 0x81, 0x18, 0xbe, 0xee, 0x95, 0xa7, 0x3d, 0x2c, 0x16, 0x92, 0x3b,
  0xa9, 0xa2, 0xe1, 0x3c, 0x69, 0x6f, 0x93, 0x3d, 0x23, 0x12, 0x6f, 0xbe,
  0x89, 0x5f, 0x27, 0x3d, 0x0f, 0x8e, 0xad, 0xbe, 0xe5, 0xc1, 0xf5, 0x3c,
  0xdd, 0x9e, 0x57, 0x3b, 0x50, 0x0f, 0x75, 0x3d, 0x6d, 0x7c, 0xe5, 0xbd,
  0xd9, 0x42, 0x90, 0xbd, 0x04, 0x82, 0xde, 0x3b, 0x06, 0x3f, 0xa3, 0xbd,
  0x08, 0xac, 0xe9, 0x39, 0x1a, 0xab, 0x71, 0xbe, 0xba, 0xc8, 0x59, 0xbe,
  0x68, 0x93, 0xab, 0xbd, 0x08, 0x62, 0x45, 0xbe, 0xf0, 0x76, 0x29, 0xbd,
  0x0a, 0x03, 0x41, 0x3c, 0xf8, 0xd2, 0x51, 0x3d, 0xa8, 0x60, 0x69, 0xbe,
  0x60, 0x43, 0x90, 0xbd, 0x73, 0xb5, 0x3d, 0xbd, 0xa8, 0x48, 0x39, 0xbc,
  0x65, 0x11, 0x84, 0xbd, 0x8f, 0x34, 0xab, 0x3d, 0x93, 0xb3, 0x86, 0x3d,
  0x42, 0x12, 0x1f, 0xbd, 0xa6, 0x9c, 0x13, 0xbe, 0x7f, 0xa1, 0x66, 0xbe,
  0x89, 0x6f, 0x47, 0x3d, 0xf9, 0x3c, 0x1d, 0xbe, 0x4f, 0xe1, 0x81, 0xbe,
  0x03, 0x3d, 0x03, 0x3e, 0x80, 0x7d, 0xb1, 0xba, 0xd7, 0x40, 0x49, 0xbc,
  0x32, 0x8b, 0x84, 0xbe, 0x19, 0xb1, 0xde, 0x3d, 0x21, 0xdf, 0x7d, 0xbd,
  0xbf, 0x49, 0xc9, 0x3d, 0xc4, 0x8d, 0x85, 0xbc, 0x60, 0x41, 0xb7, 0xbb,
  0x50, 0x16, 0x51, 0x3d, 0x2d, 0xa9, 0x80, 0xbe, 0x8e, 0xea, 0x20, 0x3d,
  0x78, 0xe2, 0x2d, 0xbe, 0xdc, 0xff, 0x0c, 0xbe, 0xfd, 0x9f, 0x33, 0xbe,
  0x05, 0xed, 0xf1, 0xbd, 0xcb, 0xc9, 0x20, 0xbe, 0x1d, 0x7e, 0x6a, 0xbe,
  0x52, 0x19, 0x95, 0x3d, 0x2c, 0x02, 0xf0, 0xbd, 0x89, 0xaa, 0xee, 0x3c,
  0xa9, 0xfe, 0xcd, 0xbd, 0xfd, 0xcc, 0x3c, 0x3c, 0x2b, 0x8b, 0x4a, 0xbd,
  0xde, 0x74, 0x3c, 0xbe, 0x23, 0x40, 0x1f, 0xbe, 0xb1, 0x1a, 0x8f, 0x3d,
  0x25, 0x29, 0xd3, 0xbd, 0x27, 0x8a, 0x71, 0x3c, 0x16, 0x56, 0x27, 0xbd,
  0xe1, 0xe8, 0xd9, 0x3d, 0xed, 0xf6, 0x56, 0xbd, 0x06, 0x1f, 0xdb, 0x3d,
  0x85, 0xf4, 0x0d, 0xbd, 0xae, 0x4c, 0x1d, 0x3e, 0x8a, 0x23, 0x47, 0xbe,
  0x0b, 0xd9, 0xb7, 0xbd, 0x78, 0x8a, 0xae, 0xbb, 0x7a, 0x24, 0x63, 0x3d,
  0xdf, 0x05, 0xe8, 0xbd, 0x89, 0x46, 0xc0, 0x3d, 0x34, 0xc0, 0xd8, 0x3d,
  0x5f, 0x85, 0x4c, 0xbc, 0x65, 0x9a, 0xa3, 0x3d, 0x86, 0xe9, 0xb9, 0xbd,
  0xcf, 0x09, 0xc7, 0xbd, 0x16, 0x65, 0x26, 0xbe, 0xe9, 0x2b, 0x94, 0xbc,
  0xc2, 0x45, 0xa1, 0xbc, 0xd0, 0x55, 0x85, 0xbe, 0x43, 0xa9, 0x74, 0xbd,
  0x86, 0xac, 0x41, 0xbd, 0x57, 0xd2, 0x41, 0xbd, 0xbc, 0x9f, 0x0d, 0x3e,
  0x46, 0x65, 0xfc, 0xbd, 0x15, 0x1a, 0xc5, 0x3c, 0xf7, 0xd6, 0xfc, 0xb9,
  0xdd, 0xf0, 0x79, 0x3e, 0x0e, 0xf6, 0x8f, 0x3e, 0xa4, 0xef, 0x90, 0x3d,
  0xd2, 0x14, 0xa4, 0x3d, 0x29, 0x84, 0x55, 0x3e, 0x84, 0x02, 0xcf, 0x3d,
  0x17, 0x69, 0xaa, 0x3b, 0x8f, 0x76, 0xb5, 0x3d, 0xa2, 0xeb, 0x42, 0x3e,
  0xbb, 0xf1, 0x98, 0x3e, 0xc9, 0xb4, 0x08, 0xbf, 0xd7, 0x22, 0x23, 0x3e,
  0x06, 0x31, 0x6a, 0x3d, 0xf0, 0x7b, 0x36, 0xbd, 0x23, 0x03, 0x30, 0x3d,
  0xdd, 0x63, 0x4d, 0x3e, 0xfc, 0x9a, 0x6f, 0x3e, 0xc5, 0xe7, 0x91, 0x3d,
  0x5d, 0x48, 0x1d, 0x3e, 0x12, 0xf3, 0x96, 0x3e, 0x6c, 0x12, 0x50, 0x3e,
  0xdf, 0xb7, 0x70, 0xbd, 0x22, 0xcf, 0xcc, 0xbc, 0x5a, 0x20, 0xee, 0x3d,
  0xd6, 0xe6, 0x7b, 0xbc, 0x74, 0x47, 0x35, 0x3e, 0xf7, 0x73, 0x25, 0xbf,
  0x0b, 0xf1, 0x78, 0x3d, 0xca, 0xef, 0xa6, 0x3c, 0x3d, 0x0d, 0x60, 0x3e,
  0xfc, 0xfb, 0x6e, 0xbe, 0xce, 0x21, 0xa5, 0x3e, 0xb3, 0xd7, 0xbf, 0xbd,
  0x38, 0x9c, 0xfc, 0x3c, 0xa0, 0x47, 0x3b, 0x3e, 0x10, 0xbd, 0x9e, 0x3d,
  0x99, 0x8d, 0x5a, 0x3e, 0x5d, 0xd8, 0xe8, 0xbd, 0x39, 0x92, 0xea, 0x3c,
  0x2a, 0x57, 0x1e, 0x3e, 0xe6, 0xb8, 0x94, 0x3d, 0xd7, 0x7c, 0x4b, 0xbd,
  0x88, 0x5f, 0x19, 0xbe, 0xa5, 0x31, 0x2f, 0xbe, 0xdd, 0x8d, 0x4a, 0xbd,
  0x73, 0xf5, 0x17, 0x3d, 0x40, 0x82, 0x32, 0xbe, 0x81, 0x8f, 0xbc, 0x3d,
  0xb8, 0x40, 0xf6, 0xbd, 0xc2, 0x63, 0xbf, 0x3c, 0xdf, 0xe9, 0xb6, 0x3e,
  0xf7, 0x19, 0x4b, 0xbc, 0x2e, 0xd9, 0x33, 0x3d, 0xad, 0x60, 0x29, 0x3e,
  0x34, 0x20, 0x65, 0x3d, 0x72, 0xc3, 0x55, 0xbc, 0x1a, 0x71, 0x76, 0x3d,
  0x47, 0xe7, 0x8e, 0x3d, 0xb8, 0x4e, 0xb7, 0xbe, 0xd3, 0x65, 0x2e, 0x3d,
  0x2a, 0xd7, 0x35, 0xbd, 0xb5, 0x7c, 0x4d, 0x3e, 0x12, 0xbe, 0x08, 0x3d,
  0x68, 0x86, 0x11, 0x3e, 0x16, 0xd1, 0x0b, 0x3e, 0xaa, 0x0d, 0x08, 0x3e,
  0x0e, 0xdb, 0x6b, 0x3e, 0x3e, 0x39, 0x0d, 0x3e, 0x09, 0x62, 0xd0, 0x3d,
  0x88, 0xd7, 0x3b, 0xbe, 0x9c, 0x19, 0x04, 0xbd, 0x6e, 0x20, 0x8e, 0xbb,
  0x90, 0x55, 0xaa, 0x3c, 0x99, 0xa8, 0x23, 0x3e, 0x2c, 0xb7, 0x00, 0xbf,
  0xfe, 0x53, 0x2d, 0xbd, 0xc9, 0x1d, 0x02, 0xbe, 0x78, 0x28, 0x12, 0x3d,
  0x13, 0xb8, 0xc0, 0x3d, 0x60, 0xfe, 0xf1, 0x3e, 0xaa, 0x85, 0x42, 0x3e,
  0x71, 0x9c, 0x09, 0x3e, 0xa0, 0x17, 0x3a, 0x3e, 0xd8, 0xf8, 0xb0, 0x3d,
  0xa9, 0xcb, 0x67, 0x3c, 0x91, 0xeb, 0x0b, 0xbd, 0xb4, 0x87, 0x02, 0xbc,
  0x09, 0x67, 0xb0, 0x3c, 0x37, 0xe6, 0x07, 0xbe, 0x62, 0x17, 0x67, 0x3e,
  0xba, 0x4c, 0xb4, 0xbe, 0xa9, 0x0b, 0xdd, 0x3c, 0xd9, 0xc0, 0x60, 0xbe,
  0xea, 0xc3, 0xda, 0x3e, 0x2c, 0x0b, 0xb5, 0xbd, 0x7c, 0xad, 0x85, 0x3e,
  0xeb, 0xe6, 0x19, 0x3e, 0x88, 0xfc, 0x32, 0x3d, 0x22, 0x01, 0xcb, 0x3d,
  0xee, 0xf0, 0x90, 0x3d, 0xe9, 0x04, 0xb1, 0x3e, 0x8e, 0x49, 0xb0, 0xbc,
  0x70, 0x5c, 0x7e, 0x3d, 0xa6, 0x53, 0x1c, 0x3d, 0x5b, 0x7a, 0x6e, 0xbd,
  0xfe, 0xb4, 0x5a, 0x3e, 0x4e, 0x45, 0xa2, 0xbe, 0xee, 0x2e, 0x25, 0xbd,
  0xad, 0xce, 0xff, 0x3b, 0x64, 0xa3, 0x28, 0x3e, 0x15, 0x41, 0x8e, 0xbd,
  0xbe, 0xbd, 0x86, 0x3e, 0x70, 0x89, 0x97, 0xbe, 0xbf, 0x55, 0xca, 0xbe,
  0x50, 0x4e, 0x1e, 0xbc, 0xc6, 0x37, 0x0f, 0xbe, 0x0b, 0x2f, 0x86, 0xbe,
  0x0a, 0x59, 0x7d, 0xbe, 0xba, 0x78, 0x79, 0xbf, 0x2c, 0x3c, 0xa7, 0x3d,
  0x08, 0x44, 0x41, 0xbf, 0xe4, 0x6c, 0xb3, 0xbd, 0x37, 0xcf, 0xa5, 0x3d,
  0x1d, 0xef, 0x4e, 0xbf, 0xc4, 0x64, 0xc3, 0xbd, 0x42, 0x8a, 0xf0, 0x3d,
  0xed, 0x3e, 0x1d, 0xbf, 0x0d, 0x7c, 0xa4, 0xbd, 0xc4, 0xaa, 0x27, 0xbe,
  0xb5, 0x76, 0x5a, 0xbc, 0xac, 0x33, 0x8b, 0xbe, 0x10, 0x64, 0x53, 0xbe,
  0xf9, 0xa3, 0x7e, 0xbd, 0x11, 0x91, 0x3c, 0xbe, 0x67, 0x7a, 0x75, 0xbe,
  0xa1, 0xb0, 0x9b, 0xb9, 0x42, 0x5b, 0x27, 0xbf, 0xfa, 0xa4, 0x22, 0xbe,
  0x97, 0x9c, 0x39, 0x3d, 0x97, 0x0d, 0x64, 0xbe, 0xff, 0x1d, 0x41, 0xbe,
  0x50, 0x48, 0x4d, 0x3e, 0x8d, 0x99, 0xa8, 0x3e, 0xbc, 0xf6, 0xe4, 0xbd,
  0x3b, 0x34, 0x17, 0x3e, 0xf4, 0x77, 0x17, 0xbd, 0x43, 0x5b, 0xab, 0xbe,
  0x14, 0x4e, 0x10, 0x3c, 0x8d, 0xe5, 0xb7, 0xbd, 0x30, 0x75, 0x7b, 0xbe,
  0xc6, 0x47, 0x18, 0x3d, 0xda, 0x4c, 0x1e, 0x3e, 0xd9, 0x82, 0x17, 0xbe,
  0x20, 0xa7, 0x8a, 0xbd, 0x62, 0x37, 0x6d, 0xbc, 0x97, 0x4c, 0xe5, 0x3c,
  0xb7, 0x6a, 0x35, 0xbe, 0x85, 0xa1, 0x99, 0x3d, 0xb3, 0x18, 0xa7, 0x3e,
  0xc4, 0x14, 0x19, 0xbe, 0x57, 0x0f, 0x45, 0x3d, 0x07, 0x3e, 0x27, 0x3d,
  0x07, 0x51, 0x77, 0xbc, 0x42, 0xb1, 0x85, 0xbd, 0x8b, 0x77, 0x92, 0xbe,
  0x04, 0x5a, 0xa8, 0x3c, 0xf9, 0xb4, 0x9f, 0x3b, 0xbc, 0xf5, 0x02, 0xbd,
  0x72, 0x7e, 0xc8, 0x3c, 0x12, 0xe9, 0x36, 0x3e, 0x50, 0xab, 0x57, 0xbb,
  0xf5, 0x35, 0xf6, 0x3c, 0x64, 0x0f, 0x3c, 0x3d, 0x01, 0x5a, 0xdd, 0xbc,
  0xd3, 0x86, 0x27, 0x3e, 0x5a, 0xca, 0x5b, 0x3c, 0xf3, 0x66, 0x98, 0x3e,
  0xaa, 0x59, 0x9f, 0x3d, 0xc6, 0x7d, 0xdd, 0xbc, 0x30, 0x5d, 0xc0, 0x3b,
  0x0b, 0xdc, 0xb9, 0xbe, 0x2a, 0x11, 0x22, 0xbe, 0x90, 0x1d, 0x35, 0x3d,
  0x80, 0x09, 0x85, 0x3d, 0x4f, 0xc8, 0x5a, 0x3c, 0x22, 0x92, 0x02, 0xbe,
  0xe1, 0x2f, 0xb3, 0xbc, 0xe1, 0x72, 0x95, 0xbd, 0x80, 0xd8, 0x17, 0x3e,
  0x78, 0xf4, 0x60, 0xbd, 0x90, 0xba, 0xb7, 0x3d, 0x82, 0x3d, 0x4c, 0xbe,
  0x8d, 0x3a, 0x00, 0x3e, 0xcf, 0xb1, 0x08, 0x3e, 0xa4, 0x51, 0x7f, 0xbe,
  0x82, 0x0d, 0xd6, 0x3c, 0x52, 0x79, 0x11, 0xbe, 0x50, 0xb4, 0xe4, 0xbd,
  0xd3, 0x20, 0x06, 0x3d, 0x37, 0x47, 0x8b, 0xbd, 0x97, 0xda, 0x9f, 0x3d,
  0x49, 0xa7, 0xc2, 0xbc, 0xfb, 0xfd, 0xbd, 0x3c, 0x2b, 0x38, 0x59, 0x3d,
  0x03, 0x48, 0x90, 0x3e, 0x9f, 0x04, 0x90, 0x3b, 0x9b, 0x43, 0x28, 0x3e,
  0x1c, 0x18, 0x21, 0xbe, 0x19, 0x0d, 0x8e, 0xbe, 0x1c, 0x74, 0xbc, 0x3d,
  0x08, 0xb6, 0x1c, 0x3e, 0x18, 0x24, 0x49, 0x3e, 0xfa, 0x4f, 0xc4, 0xbd,
  0x85, 0xfc, 0x1a, 0x3c, 0xfb, 0xd8, 0x25, 0x3e, 0x89, 0xd3, 0x50, 0xbe,
  0x63, 0x60, 0x1f, 0x3e, 0x2f, 0xec, 0xa9, 0x3e, 0x75, 0xdf, 0xd3, 0xbd,
  0xf8, 0xca, 0x12, 0x3e, 0x93, 0x64, 0x18, 0x3d, 0xec, 0xe9, 0xb1, 0x3d,
  0xc2, 0x27, 0x09, 0x3e, 0x85, 0x2b, 0x61, 0x3e, 0x51, 0xe0, 0x84, 0x3e,
  0x6f, 0xfc, 0x81, 0x3e, 0x5c, 0x1c, 0xc8, 0x3e, 0x1e, 0xdc, 0x7c, 0x3e,
  0x73, 0xd9, 0x21, 0x3e, 0xc8, 0xe4, 0x13, 0xbe, 0x1f, 0x4c, 0x24, 0x3e,
  0xe5, 0xac, 0xe2, 0x3c, 0x99, 0x11, 0xa1, 0x3d, 0x11, 0x5c, 0xbc, 0x3d,
  0x8a, 0x16, 0xb4, 0xbe, 0xdc, 0x20, 0x4f, 0xbc, 0x42, 0xde, 0x93, 0xbe,
  0xd0, 0x6e, 0x42, 0xbb, 0xf3, 0x4c, 0x03, 0x3d, 0x9d, 0x17, 0x59, 0x3e,
  0x57, 0xb0, 0x76, 0x3e, 0x2c, 0xe4, 0x06, 0x3e, 0x9a, 0x5b, 0x9d, 0x3e,
  0x87, 0xa5, 0x31, 0x3e, 0xc8, 0xd7, 0x14, 0x3e, 0xea, 0xb9, 0xcd, 0xbd,
  0xd2, 0x62, 0x70, 0xbd, 0x42, 0xa5, 0x59, 0x3d, 0x8c, 0xf1, 0x8d, 0xbd,
  0x60, 0xa4, 0x39, 0xbc, 0x7f, 0xd2, 0x12, 0xbf, 0xef, 0x65, 0xcf, 0xbc,
  0xf2, 0x13, 0x5b, 0xbe, 0xaa, 0x8c, 0x1b, 0xbe, 0x6b, 0x54, 0xb3, 0xbd,
  0x8d, 0xa0, 0x78, 0x3e, 0x20, 0x09, 0x37, 0xbd, 0x62, 0xeb, 0xce, 0x3a,
  0x6f, 0x73, 0x8d, 0x3d, 0x12, 0x78, 0xb8, 0x3c, 0xd5, 0x8f, 0x06, 0x3e,
  0x16, 0x69, 0x22, 0x3d, 0x73, 0x37, 0xb9, 0x3d, 0x6f, 0xa9, 0xf3, 0x3d,
  0x5a, 0x0f, 0x07, 0x3d, 0x4f, 0x3f, 0x4c, 0xbd, 0xd1, 0x53, 0x38, 0xbe,
  0xe1, 0xe2, 0x30, 0x3c, 0xfa, 0xe7, 0x00, 0xbe, 0x58, 0xe2, 0x05, 0x3e,
  0x87, 0x3f, 0x11, 0xbe, 0xe1, 0xd6, 0x66, 0x3e, 0x72, 0xb9, 0x8f, 0xbd,
  0x72, 0xa5, 0x3f, 0x3d, 0x38, 0xc1, 0x85, 0x3e, 0x2b, 0xe9, 0x4f, 0x3d,
  0x2b, 0x22, 0x3b, 0x3e, 0x30, 0xc0, 0xb5, 0x3d, 0xf1, 0xdf, 0x46, 0xbc,
  0xfd, 0x2c, 0xbd, 0x3d, 0xfd, 0x40, 0x10, 0x3d, 0x00, 0xa6, 0xb9, 0x3d,
  0x69, 0xe0, 0xff, 0xbe, 0x48, 0x93, 0x2c, 0xbd, 0x9d, 0xc4, 0x4d, 0xbe,
  0xb6, 0x74, 0x00, 0x3d, 0x2f, 0x6b, 0x1e, 0xbe, 0xab, 0xf3, 0x5e, 0x3e,
  0xd0, 0x23, 0x98, 0x3d, 0x1b, 0xa8, 0xd3, 0x3d, 0x3b, 0xe7, 0x1c, 0x3e,
  0x00, 0xa9, 0xae, 0x3c, 0x48, 0xe2, 0x18, 0x3e, 0x25, 0xc9, 0xa4, 0xbc,
  0x5a, 0xeb, 0x08, 0x3d, 0x22, 0xdd, 0xd2, 0xbc, 0xdb, 0x20, 0x0d, 0x3b,
  0xfb, 0x22, 0xfd, 0xbd, 0x07, 0xc2, 0xe3, 0xbd, 0xe8, 0x82, 0xf8, 0xbc,
  0x0d, 0xb8, 0x8a, 0xbe, 0xbb, 0x74, 0xbf, 0x3d, 0x28, 0xe6, 0x05, 0xbd,
  0xd7, 0x0b, 0xb2, 0x3e, 0x89, 0xf0, 0x26, 0x3d, 0xf8, 0x49, 0xc7, 0x3b,
  0x81, 0xaa, 0xd2, 0xbd, 0xb7, 0xf0, 0x3d, 0x3d, 0xd4, 0x54, 0x60, 0x3e,
  0xab, 0xe7, 0x72, 0xbd, 0x96, 0x92, 0x63, 0xbd, 0x13, 0xa8, 0xa3, 0x3c,
  0xf1, 0x44, 0x20, 0x3c, 0x26, 0xa3, 0x24, 0x3e, 0x16, 0xe2, 0x23, 0xbe,
  0xa1, 0x9a, 0xad, 0xbc, 0x35, 0xca, 0xf4, 0xbe, 0xe8, 0x8f, 0x62, 0x3e,
  0xe8, 0x89, 0x87, 0xbe, 0xa8, 0x17, 0xa1, 0x3d, 0x81, 0xfc, 0x6a, 0x3d,
  0xcb, 0xdd, 0x00, 0x3e, 0xaf, 0xf6, 0xd4, 0x3b, 0x3e, 0x56, 0xd9, 0x3d,
  0x5d, 0x5b, 0x2a, 0x3e, 0xa9, 0xdd, 0x43, 0xbd, 0xb5, 0x2d, 0xd0, 0x3c,
  0x41, 0xa4, 0x7a, 0x3d, 0x50, 0xa5, 0x85, 0xbd, 0x99, 0x2f, 0x31, 0xbd,
  0x83, 0xfd, 0xbf, 0xbe, 0x19, 0x24, 0x57, 0xbd, 0x5f, 0x3e, 0x73, 0xbd,
  0xf6, 0x02, 0xa8, 0x3e, 0x35, 0xe7, 0x1f, 0xbe, 0xec, 0xd3, 0x5f, 0x3e,
  0x66, 0xfd, 0xff, 0xff, 0x10, 0x00, 0x00, 0x00, 0x07, 0x00, 0x00, 0x00,
  0x14, 0x00, 0x00, 0x00, 0x2c, 0x00, 0x00, 0x00, 0x02, 0x00, 0x00, 0x00,
  0x10, 0x00, 0x00, 0x00, 0x70, 0x00, 0x00, 0x00, 0x17, 0x00, 0x00, 0x00,
  0x73, 0x65, 0x71, 0x75, 0x65, 0x6e, 0x74, 0x69, 0x61, 0x6c, 0x2f, 0x64,
  0x65, 0x6e, 0x73, 0x65, 0x2f, 0x4d, 0x61, 0x74, 0x4d, 0x75, 0x6c, 0x00,
  0xd0, 0xfc, 0xff, 0xff, 0xda, 0xfd, 0xff, 0xff, 0x04, 0x00, 0x00, 0x00,
  0x08, 0x00, 0x00, 0x00, 0xff, 0xff, 0xff, 0xff, 0x70, 0x00, 0x00, 0x00,
  0x00, 0x00, 0x0e, 0x00, 0x18, 0x00, 0x08, 0x00, 0x07, 0x00, 0x0c, 0x00,
  0x10, 0x00, 0x14, 0x00, 0x0e, 0x00, 0x00, 0x00, 0x00, 0x00, 0x00, 0x02,
  0x10, 0x00, 0x00, 0x00, 0x06, 0x00, 0x00, 0x00, 0x10, 0x00, 0x00, 0x00,
  0x2c, 0x00, 0x00, 0x00, 0x01, 0x00, 0x00, 0x00, 0x02, 0x00, 0x00, 0x00,
  0x18, 0x00, 0x00, 0x00, 0x73, 0x65, 0x71, 0x75, 0x65, 0x6e, 0x74, 0x69,
  0x61, 0x6c, 0x2f, 0x66, 0x6c, 0x61, 0x74, 0x74, 0x65, 0x6e, 0x2f, 0x43,
  0x6f, 0x6e, 0x73, 0x74, 0x00, 0x00, 0x00, 0x00, 0x38, 0xfd, 0xff, 0xff,
  0x42, 0xfe, 0xff, 0xff, 0x04, 0x00, 0x00, 0x00, 0x0c, 0x00, 0x00, 0x00,
  0xa6, 0xca, 0x4b, 0xc0, 0xfa, 0x34, 0x17, 0x40, 0xac, 0xe3, 0x24, 0xbe,
  0x26, 0xfe, 0xff, 0xff, 0x10, 0x00, 0x00, 0x00, 0x05, 0x00, 0x00, 0x00,
  0x10, 0x00, 0x00, 0x00, 0x44, 0x00, 0x00, 0x00, 0x01, 0x00, 0x00, 0x00,
  0x03, 0x00, 0x00, 0x00, 0x32, 0x00, 0x00, 0x00, 0x73, 0x65, 0x71, 0x75,
  0x65, 0x6e, 0x74, 0x69, 0x61, 0x6c, 0x2f, 0x64, 0x65, 0x6e, 0x73, 0x65,
  0x5f, 0x31, 0x2f, 0x42, 0x69, 0x61, 0x73, 0x41, 0x64, 0x64, 0x2f, 0x52,
  0x65, 0x61, 0x64, 0x56, 0x61, 0x72, 0x69, 0x61, 0x62, 0x6c, 0x65, 0x4f,
  0x70, 0x2f, 0x72, 0x65, 0x73, 0x6f, 0x75, 0x72, 0x63, 0x65, 0x00, 0x00,
  0xa8, 0xfd, 0xff, 0xff, 0xb2, 0xfe, 0xff, 0xff, 0x04, 0x00, 0x00, 0x00,
  0x40, 0x00, 0x00, 0x00, 0x66, 0xa9, 0xae, 0xbe, 0x6f, 0x75, 0x5f, 0x3f,
  0x05, 0xf4, 0x0d, 0xbe, 0x79, 0x7d, 0x1a, 0x3e, 0xe5, 0x86, 0xa9, 0xbe,
  0x8d, 0xcf, 0x88, 0xbe, 0x0a, 0xf2, 0x81, 0x3f, 0x29, 0x94, 0x0c, 0xbd,
  0xed, 0x2a, 0x20, 0xbf, 0xf3, 0xb8, 0xd1, 0x3e, 0xdb, 0xb2, 0x08, 0xbe,
  0xbf, 0x06, 0x2a, 0xbf, 0xc5, 0xd9, 0x80, 0xbe, 0x94, 0x7c, 0x12, 0x3e,
  0x54, 0x85, 0x0a, 0xbf, 0xf5, 0x45, 0x2f, 0x3f, 0xca, 0xfe, 0xff, 0xff,
  0x10, 0x00, 0x00, 0x00, 0x04, 0x00, 0x00, 0x00, 0x10, 0x00, 0x00, 0x00,
  0x44, 0x00, 0x00, 0x00, 0x01, 0x00, 0x00, 0x00, 0x10, 0x00, 0x00, 0x00,
  0x30, 0x00, 0x00, 0x00, 0x73, 0x65, 0x71, 0x75, 0x65, 0x6e, 0x74, 0x69,
  0x61, 0x6c, 0x2f, 0x64, 0x65, 0x6e, 0x73, 0x65, 0x2f, 0x42, 0x69, 0x61,
  0x73, 0x41, 0x64, 0x64, 0x2f, 0x52, 0x65, 0x61, 0x64, 0x56, 0x61, 0x72,
  0x69, 0x61, 0x62, 0x6c, 0x65, 0x4f, 0x70, 0x2f, 0x72, 0x65, 0x73, 0x6f,
  0x75, 0x72, 0x63, 0x65, 0x00, 0x00, 0x00, 0x00, 0x4c, 0xfe, 0xff, 0xff,
  0x56, 0xff, 0xff, 0xff, 0x04, 0x00, 0x00, 0x00, 0x40, 0x00, 0x00, 0x00,
  0x80, 0x0b, 0xc5, 0x3f, 0xb7, 0x32, 0x8d, 0x3d, 0xbe, 0xb2, 0x4a, 0x3f,
  0xfc, 0xbe, 0xad, 0xbe, 0x99, 0x50, 0x3b, 0xbe, 0xad, 0x39, 0x5c, 0xbe,
  0x77, 0xf6, 0xb9, 0xbe, 0x18, 0xa4, 0xf3, 0xbd, 0xf3, 0x7c, 0xb3, 0xbe,
  0xdd, 0xdd, 0x18, 0xbd, 0xb9, 0x93, 0x89, 0xbe, 0x1d, 0x71, 0xfc, 0xbd,
  0xeb, 0x61, 0x1f, 0xbf, 0xb2, 0xc9, 0xda, 0xbc, 0xb3, 0x00, 0xe0, 0xbe,
  0x95, 0x0f, 0x02, 0xbe, 0x6e, 0xff, 0xff, 0xff, 0x10, 0x00, 0x00, 0x00,
  0x03, 0x00, 0x00, 0x00, 0x10, 0x00, 0x00, 0x00, 0x48, 0x00, 0x00, 0x00,
  0x01, 0x00, 0x00, 0x00, 0x10, 0x00, 0x00, 0x00, 0x33, 0x00, 0x00, 0x00,
  0x73, 0x65, 0x71, 0x75, 0x65, 0x6e, 0x74, 0x69, 0x61, 0x6c, 0x2f, 0x63,
  0x6f, 0x6e, 0x76, 0x32, 0x64, 0x5f, 0x31, 0x2f, 0x42, 0x69, 0x61, 0x73,
  0x41, 0x64, 0x64, 0x2f, 0x52, 0x65, 0x61, 0x64, 0x56, 0x61, 0x72, 0x69,
  0x61, 0x62, 0x6c, 0x65, 0x4f, 0x70, 0x2f, 0x72, 0x65, 0x73, 0x6f, 0x75,
  0x72, 0x63, 0x65, 0x00, 0x04, 0x00, 0x06, 0x00, 0x04, 0x00, 0x00, 0x00,
  0x00, 0x00, 0x06, 0x00, 0x08, 0x00, 0x04, 0x00, 0x06, 0x00, 0x00, 0x00,
  0x04, 0x00, 0x00, 0x00, 0x20, 0x00, 0x00, 0x00, 0x44, 0xf0, 0x94, 0xbf,
  0x3d, 0xc5, 0x73, 0xbf, 0xbd, 0x88, 0x42, 0xbf, 0x66, 0x31, 0xf1, 0xbe,
  0x35, 0xdc, 0x3a, 0x3e, 0x52, 0xb7, 0x7b, 0xbe, 0xe2, 0x78, 0xa1, 0xbe,
  0xb5, 0xd5, 0x5c, 0xbf, 0x00, 0x00, 0x0e, 0x00, 0x14, 0x00, 0x04, 0x00,
  0x00, 0x00, 0x08, 0x00, 0x0c, 0x00, 0x10, 0x00, 0x0e, 0x00, 0x00, 0x00,
  0x10, 0x00, 0x00, 0x00, 0x02, 0x00, 0x00, 0x00, 0x10, 0x00, 0x00, 0x00,
  0x44, 0x00, 0x00, 0x00, 0x01, 0x00, 0x00, 0x00, 0x08, 0x00, 0x00, 0x00,
  0x31, 0x00, 0x00, 0x00, 0x73, 0x65, 0x71, 0x75, 0x65, 0x6e, 0x74, 0x69,
  0x61, 0x6c, 0x2f, 0x63, 0x6f, 0x6e, 0x76, 0x32, 0x64, 0x2f, 0x42, 0x69,
  0x61, 0x73, 0x41, 0x64, 0x64, 0x2f, 0x52, 0x65, 0x61, 0x64, 0x56, 0x61,
  0x72, 0x69, 0x61, 0x62, 0x6c, 0x65, 0x4f, 0x70, 0x2f, 0x72, 0x65, 0x73,
  0x6f, 0x75, 0x72, 0x63, 0x65, 0x00, 0x00, 0x00, 0x90, 0xff, 0xff, 0xff,
  0x14, 0x00, 0x18, 0x00, 0x04, 0x00, 0x00, 0x00, 0x08, 0x00, 0x0c, 0x00,
  0x10, 0x00, 0x00, 0x00, 0x00, 0x00, 0x14, 0x00, 0x14, 0x00, 0x00, 0x00,
  0x14, 0x00, 0x00, 0x00, 0x01, 0x00, 0x00, 0x00, 0x20, 0x00, 0x00, 0x00,
  0x44, 0x00, 0x00, 0x00, 0x2c, 0x00, 0x00, 0x00, 0x04, 0x00, 0x00, 0x00,
  0x01, 0x00, 0x00, 0x00, 0x40, 0x00, 0x00, 0x00, 0x03, 0x00, 0x00, 0x00,
  0x01, 0x00, 0x00, 0x00, 0x0c, 0x00, 0x00, 0x00, 0x63, 0x6f, 0x6e, 0x76,
  0x32, 0x64, 0x5f, 0x69, 0x6e, 0x70, 0x75, 0x74, 0x00, 0x00, 0x00, 0x00,
  0x04, 0x00, 0x00, 0x00, 0xff, 0xff, 0xff, 0xff, 0x40, 0x00, 0x00, 0x00,
  0x03, 0x00, 0x00, 0x00, 0x01, 0x00, 0x00, 0x00, 0xfc, 0xff, 0xff, 0xff,
  0x04, 0x00, 0x04, 0x00, 0x04, 0x00, 0x00, 0x00

};

unsigned int model_tflite_len = 13052;// Fill the int in `src/model.cc` here